{
  "<pad>": 0,
  "<s>": 1,
  "</s>": 2,
  "<unk>": 3,
  "<0x00>": 4,
  "<0x01>": 5,
  "<0x02>": 6,
  "<0x03>": 7,
  "<0x04>": 8,
  "<0x05>": 9,
  "<0x06>": 10,
  "<0x07>": 11,
  "<0x08>": 12,
  "<0x09>": 13,
  "<0x0A>": 14,
  "<0x0B>": 15,
  "<0x0C>": 16,
  "<0x0D>": 17,
  "<0x0E>": 18,
  "<0x0F>": 19,
  "<0x10>": 20,
  "<0x11>": 21,
  "<0x12>": 22,
  "<0x13>": 23,
  "<0x14>": 24,
  "<0x15>": 25,
  "<0x16>": 26,
  "<0x17>": 27,
  "<0x18>": 28,
  "<0x19>": 29,
  "<0x1A>": 30,
  "<0x1B>": 31,
  "<0x1C>": 32,
  "<0x1D>": 33,
  "<0x1E>": 34,
  "<0x1F>": 35,
  "<0x20>": 36,
  "<0x21>": 37,
  "<0x22>": 38,
  "<0x23>": 39,
  "<0x24>": 40,
  "<0x25>": 41,
  "<0x26>": 42,
  "<0x27>": 43,
  "<0x28>": 44,
  "<0x29>": 45,
  "<0x2A>": 46,
  "<0x2B>": 47,
  "<0x2C>": 48,
  "<0x2D>": 49,
  "<0x2E>": 50,
  "<0x2F>": 51,
  "<0x30>": 52,
  "<0x31>": 53,
  "<0x32>": 54,
  "<0x33>": 55,
  "<0x34>": 56,
  "<0x35>": 57,
  "<0x36>": 58,
  "<0x37>": 59,
  "<0x38>": 60,
  "<0x39>": 61,
  "<0x3A>": 62,
  "<0x3B>": 63,
  "<0x3C>": 64,
  "<0x3D>": 65,
  "<0x3E>": 66,
  "<0x3F>": 67,
  "<0x40>": 68,
  "<0x41>": 69,
  "<0x42>": 70,
  "<0x43>": 71,
  "<0x44>": 72,
  "<0x45>": 73,
  "<0x46>": 74,
  "<0x47>": 75,
  "<0x48>": 76,
  "<0x49>": 77,
  "<0x4A>": 78,
  "<0x4B>": 79,
  "<0x4C>": 80,
  "<0x4D>": 81,
  "<0x4E>": 82,
  "<0x4F>": 83,
  "<0x50>": 84,
  "<0x51>": 85,
  "<0x52>": 86,
  "<0x53>": 87,
  "<0x54>": 88,
  "<0x55>": 89,
  "<0x56>": 90,
  "<0x57>": 91,
  "<0x58>": 92,
  "<0x59>": 93,
  "<0x5A>": 94,
  "<0x5B>": 95,
  "<0x5C>": 96,
  "<0x5D>": 97,
  "<0x5E>": 98,
  "<0x5F>": 99,
  "<0x60>": 100,
  "<0x61>": 101,
  "<0x62>": 102,
  "<0x63>": 103,
  "<0x64>": 104,
  "<0x65>": 105,
  "<0x66>": 106,
  "<0x67>": 107,
  "<0x68>": 108,
  "<0x69>": 109,
  "<0x6A>": 110,
  "<0x6B>": 111,
  "<0x6C>": 112,
  "<0x6D>": 113,
  "<0x6E>": 114,
  "<0x6F>": 115,
  "<0x70>": 116,
  "<0x71>": 117,
  "<0x72>": 118,
  "<0x73>": 119,
  "<0x74>": 120,
  "<0x75>": 121,
  "<0x76>": 122,
  "<0x77>": 123,
  "<0x78>": 124,
  "<0x79>": 125,
  "<0x7A>": 126,
  "<0x7B>": 127,
  "<0x7C>": 128,
  "<0x7D>": 129,
  "<0x7E>": 130,
  "<0x7F>": 131,
  "<0x80>": 132,
  "<0x81>": 133,
  "<0x82>": 134,
  "<0x83>": 135,
  "<0x84>": 136,
  "<0x85>": 137,
  "<0x86>": 138,
  "<0x87>": 139,
  "<0x88>": 140,
  "<0x89>": 141,
  "<0x8A>": 142,
  "<0x8B>": 143,
  "<0x8C>": 144,
  "<0x8D>": 145,
  "<0x8E>": 146,
  "<0x8F>": 147,
  "<0x90>": 148,
  "<0x91>": 149,
  "<0x92>": 150,
  "<0x93>": 151,
  "<0x94>": 152,
  "<0x95>": 153,
  "<0x96>": 154,
  "<0x97>": 155,
  "<0x98>": 156,
  "<0x99>": 157,
  "<0x9A>": 158,
  "<0x9B>": 159,
  "<0x9C>": 160,
  "<0x9D>": 161,
  "<0x9E>": 162,
  "<0x9F>": 163,
  "<0xA0>": 164,
  "<0xA1>": 165,
  "<0xA2>": 166,
  "<0xA3>": 167,
  "<0xA4>": 168,
  "<0xA5>": 169,
  "<0xA6>": 170,
  "<0xA7>": 171,
  "<0xA8>": 172,
  "<0xA9>": 173,
  "<0xAA>": 174,
  "<0xAB>": 175,
  "<0xAC>": 176,
  "<0xAD>": 177,
  "<0xAE>": 178,
  "<0xAF>": 179,
  "<0xB0>": 180,
  "<0xB1>": 181,
  "<0xB2>": 182,
  "<0xB3>": 183,
  "<0xB4>": 184,
  "<0xB5>": 185,
  "<0xB6>": 186,
  "<0xB7>": 187,
  "<0xB8>": 188,
  "<0xB9>": 189,
  "<0xBA>": 190,
  "<0xBB>": 191,
  "<0xBC>": 192,
  "<0xBD>": 193,
  "<0xBE>": 194,
  "<0xBF>": 195,
  "<0xC0>": 196,
  "<0xC1>": 197,
  "<0xC2>": 198,
  "<0xC3>": 199,
  "<0xC4>": 200,
  "<0xC5>": 201,
  "<0xC6>": 202,
  "<0xC7>": 203,
  "<0xC8>": 204,
  "<0xC9>": 205,
  "<0xCA>": 206,
  "<0xCB>": 207,
  "<0xCC>": 208,
  "<0xCD>": 209,
  "<0xCE>": 210,
  "<0xCF>": 211,
  "<0xD0>": 212,
  "<0xD1>": 213,
  "<0xD2>": 214,
  "<0xD3>": 215,
  "<0xD4>": 216,
  "<0xD5>": 217,
  "<0xD6>": 218,
  "<0xD7>": 219,
  "<0xD8>": 220,
  "<0xD9>": 221,
  "<0xDA>": 222,
  "<0xDB>": 223,
  "<0xDC>": 224,
  "<0xDD>": 225,
  "<0xDE>": 226,
  "<0xDF>": 227,
  "<0xE0>": 228,
  "<0xE1>": 229,
  "<0xE2>": 230,
  "<0xE3>": 231,
  "<0xE4>": 232,
  "<0xE5>": 233,
  "<0xE6>": 234,
  "<0xE7>": 235,
  "<0xE8>": 236,
  "<0xE9>": 237,
  "<0xEA>": 238,
  "<0xEB>": 239,
  "<0xEC>": 240,
  "<0xED>": 241,
  "<0xEE>": 242,
  "<0xEF>": 243,
  "<0xF0>": 244,
  "<0xF1>": 245,
  "<0xF2>": 246,
  "<0xF3>": 247,
  "<0xF4>": 248,
  "<0xF5>": 249,
  "<0xF6>": 250,
  "<0xF7>": 251,
  "<0xF8>": 252,
  "<0xF9>": 253,
  "<0xFA>": 254,
  "<0xFB>": 255,
  "<0xFC>": 256,
  "<0xFD>": 257,
  "<0xFE>": 258,
  "<0xFF>": 259,
  "ng": 260,
  "\u2581t": 261,
  "\u2581c": 262,
  "nh": 263,
  "\u2581\u0111": 264,
  "\u2581l": 265,
  "\u2581th": 266,
  "\u2581m": 267,
  "\u2581T": 268,
  "\u2581k": 269,
  "\u2581h": 270,
  "\u2581n": 271,
  "\u2581v": 272,
  "\u2581ch": 273,
  "\u2581nh": 274,
  "\u2581kh": 275,
  "\u2581b": 276,
  "\u00ean": 277,
  "\u2581tr": 278,
  "\u2581ng": 279,
  "\u2581s": 280,
  "\u00f4ng": 281,
  "\u2581g": 282,
  "\u2581r": 283,
  "..": 284,
  "ph": 285,
  "\u2581ph": 286,
  "\u2581kh\u00f4ng": 287,
  "i\u1ebf": 288,
  "\u2581L": 289,
  "uy": 290,
  "\u2581N": 291,
  "\u01b0\u1edd": 292,
  "\u2581d": 293,
  "\u2581Th": 294,
  "\u2581l\u00e0": 295,
  "\u01b0\u01a1": 296,
  "\u2581gi": 297,
  "\u1ea1i": 298,
  "\u2581H": 299,
  "\u1ed9t": 300,
  "\u2581c\u00f3": 301,
  "i\u00ean": 302,
  "\u2581n\u00e0": 303,
  "ong": 304,
  "\u00e2n": 305,
  "\u1ea7n": 306,
  "\u2581m\u1ed9t": 307,
  "\u2581C": 308,
  "i\u1ec7": 309,
  "\u2581q": 310,
  "\u01b0\u1eddi": 311,
  "\u2581\u0110": 312,
  "\u1ea5t": 313,
  "\u01b0\u01a1ng": 314,
  "\u2581qu": 315,
  "\u1edbi": 316,
  "ch": 317,
  "\u2581c\u1ee7": 318,
  "\u2581c\u1ee7a": 319,
  "inh": 320,
  "\u2581x": 321,
  "\u2581nh\u01b0": 322,
  "\u01b0\u1ee3": 323,
  "\u2581ta": 324,
  "\u2581n\u00e0y": 325,
  "\u1eafn": 326,
  "\u2581Tr": 327,
  "\u2581ng\u01b0\u1eddi": 328,
  "\u2581V": 329,
  "\u2581n\u00f3": 330,
  "\u2581K": 331,
  "\u2581\"": 332,
  "ao": 333,
  "\u0169ng": 334,
  "\u2581l\u1ea1i": 335,
  "\u2581v\u00e0": 336,
  "\u2581ra": 337,
  "\u2581c\u0169ng": 338,
  "\u2581trong": 339,
  "\u2581M": 340,
  "\u1ef1c": 341,
  "\u2581th\u1ec3": 342,
  "\u2581n\u00f3i": 343,
  "\u2581Ng": 344,
  "\u2581h\u1eafn": 345,
  "\u1ea5y": 346,
  "ang": 347,
  "\u01b0\u1edb": 348,
  "....": 349,
  "\u01b0\u1ee3c": 350,
  "anh": 351,
  "\u2581Nh": 352,
  "u\u1ed1": 353,
  "\u00ecnh": 354,
  "an": 355,
  "\u01b0\u1eddng": 356,
  "\u00e2m": 357,
  "\u00e0n": 358,
  "\u1ec1u": 359,
  "ai": 360,
  "\u2581\u0111i": 361,
  "\u2581\u0111\u00e3": 362,
  "\u00f9ng": 363,
  "\u1ea3i": 364,
  "\u1eaft": 365,
  "\u2581m\u00e0": 366,
  "\u1ebfn": 367,
  "\u2581c\u1ea3": 368,
  "\u2581c\u00e1": 369,
  "ay": 370,
  "\u01b0\u1edbc": 371,
  "i\u1ec7n": 372,
  "\u1ec1n": 373,
  "\u2581D": 374,
  "\u1ebft": 375,
  "\u2581\u0111\u01b0\u1ee3c": 376,
  "\u00ecn": 377,
  "\u2581Kh": 378,
  "\u00e0nh": 379,
  "uy\u1ec7": 380,
  "\u1eadn": 381,
  "ung": 382,
  "\u1eddi": 383,
  "\u2581\u0111\u1ebfn": 384,
  "\u2581Ch": 385,
  "\u1eafc": 386,
  "i\u1ebft": 387,
  "\u2581S": 388,
  "\u2581nh\u00ecn": 389,
  "\u01b0\u01a1i": 390,
  "Ph": 391,
  "\u2581T\u00ean": 392,
  "\u2581\u0111\u00f3": 393,
  "\u2581ngh": 394,
  "\u2581B": 395,
  "\u1ea7u": 396,
  "au": 397,
  "\u1eadt": 398,
  "\u1ed9ng": 399,
  "\u00e0ng": 400,
  "am": 401,
  "i\u1ebfn": 402,
  "\u2581Ph": 403,
  "\u1ee9c": 404,
  "\u1ea1o": 405,
  "\u2581ch\u00fa": 406,
  "\u00e1nh": 407,
  "\u1ed3i": 408,
  "\u00eau": 409,
  "\u01a1n": 410,
  "\u00f2n": 411,
  "\u00e2y": 412,
  "i\u1ec3": 413,
  "\u1eb7t": 414,
  "\u2581m\u1eaft": 415,
  "\u00fac": 416,
  ".\"": 417,
  "\u1ed1i": 418,
  "\u2581ch\u1ec9": 419,
  "\u00f4i": 420,
  "\u00f4n": 421,
  "\u2581ph\u00e1": 422,
  "\u1eady": 423,
  "\u00e1c": 424,
  "\u2581Thi\u00ean": 425,
  "\u2581v\u00e0o": 426,
  "\u2581t\u1eeb": 427,
  "\u2581v\u1edbi": 428,
  "\u2581ph\u1ea3i": 429,
  "\u2581c\u00f2n": 430,
  "\u2581\u0111\u1ea7u": 431,
  "i\u1ebfp": 432,
  "\u2581l\u00ean": 433,
  "\u2581cho": 434,
  "\u2581ng\u01b0\u01a1i": 435,
  "\u2581\u1edf": 436,
  "\u1ee5c": 437,
  "uy\u00ean": 438,
  "uy\u1ec7n": 439,
  "\u2581c\u00f9ng": 440,
  "\u00e0i": 441,
  "\u00e2u": 442,
  "\u2581m\u1eb7t": 443,
  "\u2581th\u1ea5y": 444,
  "\u1ea1c": 445,
  "\u1eefng": 446,
  "\u1ea1ch": 447,
  "\u2581v\u1eady": 448,
  "\u3002\u201d": 449,
  "\u2581tay": 450,
  "\u00ednh": 451,
  "\u2581nh\u01b0ng": 452,
  "\u2581th\u1ebf": 453,
  "\u2581b\u1ecb": 454,
  "\u2581r\u1ed3i": 455,
  "\u2581tr\u00ean": 456,
  "\u00edch": 457,
  "\u1eabn": 458,
  "\u1ea1nh": 459,
  "\u2581tr\u01b0\u1edbc": 460,
  "uy\u1ec1n": 461,
  "\u2581sao": 462,
  "\u2581th\u00e0nh": 463,
  "i\u1ec3u": 464,
  "\u2581g\u00ec": 465,
  "\u00e1ng": 466,
  "\u00e1i": 467,
  "\u0103ng": 468,
  "\u1ea3n": 469,
  "\u2581sau": 470,
  "\u2581s\u1ef1": 471,
  ":\u201c": 472,
  "\u1ed9c": 473,
  "\u2581th\u00ec": 474,
  "\u0103m": 475,
  "\u2581n\u1eef": 476,
  "\u01a1i": 477,
  "\u2581ho": 478,
  "\u1ed3ng": 479,
  "\u2581v\u1ec1": 480,
  "\u00f2ng": 481,
  "\u6ca1\u6709": 482,
  "\u2581bi\u1ebft": 483,
  "\u2581\u0111\u1ec1u": 484,
  "......": 485,
  "\u2581l\u00e0m": 486,
  "\u1eadp": 487,
  "i\u00eau": 488,
  "ia": 489,
  "\u2581hai": 490,
  "\u2581tu": 491,
  "\u1ed1ng": 492,
  "\u00e1t": 493,
  "\u2581nh\u1eefng": 494,
  "\u2581nhi\u00ean": 495,
  "\u2581Nam": 496,
  "uy\u1ebft": 497,
  "\u2581ch\u00fat": 498,
  "\u2581l\u1ef1c": 499,
  "u\u1ed1n": 500,
  "\u2581\u0111\u1ea1i": 501,
  "\u2581s\u1ebd": 502,
  "\u2581h\u1ecd": 503,
  "\u4e86\u4e00": 504,
  "\u2581th\u00e2n": 505,
  "\u2581\u0111\u1ec3": 506,
  "\u1ed9i": 507,
  "\u2581r\u1ea5t": 508,
  "\u2581hi\u1ec7n": 509,
  "\u2581m\u00ecnh": 510,
  "\u2581Tr\u1ea7n": 511,
  "i\u1ec1u": 512,
  "\u1ea1n": 513,
  "\u2581khi": 514,
  "\u2581co": 515,
  "\u1ebfu": 516,
  "\u2581nh\u00e2n": 517,
  "\u2581n\u00e0o": 518,
  "\u2581Q": 519,
  "\u4ec0\u4e48": 520,
  "\u01b0\u1ee3ng": 521,
  "\u2581T\u01b0": 522,
  "\u2581mu\u1ed1n": 523,
  "\u01b0ng": 524,
  "\u2581Th\u1ea7n": 525,
  "\u1ea3o": 526,
  "\u2581c\u01b0\u1eddi": 527,
  "\u01b0a": 528,
  "i\u1ebfm": 529,
  "\u2581ph\u00ed": 530,
  "\u2581\u0111\u1ecb": 531,
  "\u2581\u201c": 532,
  "\u1ea5n": 533,
  "\u00eam": 534,
  "i\u1ec1n": 535,
  "\u2581n\u00e0ng": 536,
  "\u6797\u52a8": 537,
  "\u2581Ho": 538,
  "\u2581\u0111\u1ed1i": 539,
  "\u1eebng": 540,
  "\u2581nh\u1ea5t": 541,
  "\u0103n": 542,
  "eo": 543,
  "\u1ecfi": 544,
  "\u2581ph\u00eda": 545,
  "\u2581l\u00fac": 546,
  "\u2581qua": 547,
  "\u2581kh\u00ed": 548,
  "\u2581\u0110\u1ed9ng": 549,
  "\u2581th\u1ea7n": 550,
  "\u1ecdng": 551,
  "\u1ea7m": 552,
  "\u2581v\u00f4": 553,
  "\u1ed5i": 554,
  "\u2581t\u1edbi": 555,
  "\u1eeba": 556,
  "i\u1ebfng": 557,
  "\u2581m\u1edbi": 558,
  "\u1ee9ng": 559,
  "\u81ea\u5df1": 560,
  "\u2581c\u1ea3m": 561,
  "\u2581c\u00e1i": 562,
  "\u2581h\u01a1n": 563,
  "\u2581n\u1eefa": 564,
  "\u1eb7c": 565,
  "\u1edfng": 566,
  "\u2581to": 567,
  "\u00e1m": 568,
  "\u2581t\u1eed": 569,
  "\u01b0\u1edfng": 570,
  "\u2581V\u00e2n": 571,
  "\u00e1n": 572,
  "\u2581\u0111\u1ed9ng": 573,
  "\u2581L\u00e2m": 574,
  "\u2581\u0111ang": 575,
  "\u2581thu": 576,
  "\u2581gia": 577,
  "\u1ea5p": 578,
  "?\"": 579,
  "u\u1ed1ng": 580,
  "\u2581v\u1eabn": 581,
  "\u2581L\u1ea1c": 582,
  "\u2581\u0111\u1ea1o": 583,
  "\u2581kia": 584,
  "\u2581\u00fd": 585,
  "\u2581th\u1ef1c": 586,
  "\u2581Ly": 587,
  "\u2581l\u1edb": 588,
  "\u2581b\u00ean": 589,
  "\u2581t\u1ee9c": 590,
  "\u2581ti\u1ebfng": 591,
  "\u601d\u5357": 592,
  "\u2581n\u00ean": 593,
  "?\u201d": 594,
  "\u1eb1ng": 595,
  "\u59dc\u601d\u5357": 596,
  "\u2581Qu": 597,
  "...": 598,
  "\u1ed1t": 599,
  "\u2581Linh": 600,
  "uy\u1ec7t": 601,
  "\u01b0u": 602,
  "\u1ecdn": 603,
  "\u00e3o": 604,
  "\u2581G": 605,
  "\u2581con": 606,
  "\u2581n\u0103m": 607,
  "\u1eeda": 608,
  "\u2581lo": 609,
  "\u2581ch\u00ednh": 610,
  "i\u1ec7t": 611,
  "\u1ea3nh": 612,
  "\u00e1o": 613,
  "im": 614,
  "\u4ed6\u4eec": 615,
  "\u4e00\u4e2a": 616,
  "\u2581\u0111\u00e2y": 617,
  "\u77e5\u9053": 618,
  "\u2581l\u1edbn": 619,
  "\u2581L\u00fd": 620,
  "\u2581v\u1ecb": 621,
  "\u2581ngo": 622,
  "\u00e1ch": 623,
  "\u2581ngh\u0129": 624,
  "\u2581s\u01b0": 625,
  "\u2581y": 626,
  "\u2581t\u1ef1": 627,
  "!\u201d": 628,
  "\u2581l\u00f2ng": 629,
  "\u1eb3ng": 630,
  "\u2581theo": 631,
  "\u1ea1t": 632,
  "\u2581Long": 633,
  "\u00e0y": 634,
  "\u2581ph\u00e1p": 635,
  "\u2581nhi\u1ec1u": 636,
  "\u8042\u79bb": 637,
  "\u1ed1n": 638,
  "\u2581chuy\u1ec7n": 639,
  "\u2581kh\u00e1c": 640,
  "\u2581Gi": 641,
  "\u2581c\u00f4ng": 642,
  "em": 643,
  "\u2581\u00e1nh": 644,
  "\u2581th\u1eddi": 645,
  "\u1ed3n": 646,
  "\u1ecdi": 647,
  "\u2581H\u1ea1": 648,
  "\u2581xu\u1ed1ng": 649,
  "\u1ea5u": 650,
  "\u2581Kh\u01b0\u01a1ng": 651,
  "!\"": 652,
  "\u2581c\u00e1c": 653,
  "\u2581V\u01b0\u01a1ng": 654,
  "\u2581t\u00e2m": 655,
  "\u2581T\u1eed": 656,
  "\u2581kh\u00f3": 657,
  "i\u1ec7u": 658,
  "\u00e0o": 659,
  "\u4e0d\u662f": 660,
  "\u82cf\u843d": 661,
  "Th": 662,
  "\u2581l\u1ea7n": 663,
  "\u2581T\u00f4": 664,
  "\u00e1p": 665,
  "\u5df2\u7ecf": 666,
  "\u2581t\u1ea1i": 667,
  "i\u1ec7c": 668,
  "\u2581v\u00ec": 669,
  "\u2581Thanh": 670,
  "\u2581to\u00e0n": 671,
  "\u1eafng": 672,
  "\u2581ch\u00fang": 673,
  "en": 674,
  "\u2581v\u1eeba": 675,
  "\u2581gi\u1edbi": 676,
  "\u8bf4\u9053": 677,
  "\u2581\u0111\u1ecbnh": 678,
  "\u2581th\u1eadt": 679,
  "\u1ed1c": 680,
  "\u1eadm": 681,
  "\u2581l\u00e3o": 682,
  "\u2581ti\u1ebfp": 683,
  "\u00fang": 684,
  "\u1ea9n": 685,
  "\u1ecdc": 686,
  "\u00f3ng": 687,
  "\u2581luy\u1ec7n": 688,
  "\u4e5f\u662f": 689,
  "\u2581gi\u1ea3": 690,
  "\u2581l\u1ea5y": 691,
  "\u2581tr\u1edf": 692,
  "\u2581b\u1ea3n": 693,
  "\u2581xu": 694,
  "\u2581linh": 695,
  "\u2581c\u1ea7n": 696,
  "\u2581c\u01a1": 697,
  "i\u1ec5": 698,
  "\u6709\u4e9b": 699,
  "\u2581ki\u1ebfm": 700,
  "\u2581quan": 701,
  "\u2581vi\u1ec7c": 702,
  "\u5230\u4e86": 703,
  "\u8fd9\u4e2a": 704,
  "\u4ed6\u7684": 705,
  "\u2581Huy\u1ec1n": 706,
  "\u2581Nguy\u00ean": 707,
  "\u2581t\u1eebng": 708,
  "\u2581X": 709,
  "\u2581k\u1ef3": 710,
  "\u2581ba": 711,
  "\u2581gian": 712,
  "\u2581ph\u00e1t": 713,
  "\u2581d\u00f9": 714,
  "\u2581s\u1eafc": 715,
  "i\u1ebfu": 716,
  "\u8d77\u6765": 717,
  "\u2581S\u01a1n": 718,
  "\u2581Y": 719,
  "\u2581ch\u01b0a": 720,
  "\u00f3a": 721,
  "\u2581c\u00e1ch": 722,
  "\u2581n\u1ebfu": 723,
  "\u2581Cung": 724,
  "\u2581m\u1ea1nh": 725,
  "\u3002\u201c": 726,
  "\u1ea3y": 727,
  "\u2581ngo\u00e0i": 728,
  "\u2581l\u1eadp": 729,
  "in": 730,
  "\u2581ng\u00e0y": 731,
  "\u2581\u6797\u52a8": 732,
  "\u1ee3i": 733,
  "\u73b0\u5728": 734,
  "\u2581sinh": 735,
  "\u2581T\u00f4ng": 736,
  "\u2581lu": 737,
  "\u2581l\u1eddi": 738,
  "\u2581ti\u00ean": 739,
  "\u2581c\u00e0ng": 740,
  "\u2581qu\u00e1": 741,
  "i\u1ec7p": 742,
  "\u2581\u0110\u1ea1i": 743,
  "\u2581thi\u00ean": 744,
  "\u2581cu": 745,
  "\u2581c\u1ea3nh": 746,
  "\u2581La": 747,
  "\u2581th\u1ee7": 748,
  "\u2581ch\u00e2n": 749,
  "\u2581nh\u1eadn": 750,
  "\u2581cao": 751,
  "Kh": 752,
  "\u00e0m": 753,
  "\u2581Ti\u00ean": 754,
  "\u4e0d\u8fc7": 755,
  "\u2581li\u1ec1n": 756,
  "\u2581ch\u1ebft": 757,
  "\u2581Nhi\u1ebfp": 758,
  "\u2581kinh": 759,
  "\u2581\u8fd9": 760,
  "\u0129nh": 761,
  "\u1ea7y": 762,
  "\u2581b\u1ea5t": 763,
  "\u2581l\u1ebd": 764,
  "\u2581tr\u1eadn": 765,
  "\u1eadu": 766,
  "\u1eafm": 767,
  "\u2581ch\u1ee7": 768,
  "\u2581nghe": 769,
  "\u770b\u7740": 770,
  "u\u1ed1i": 771,
  "\u2581c\u00f4": 772,
  "\u2581Trong": 773,
  "\u2581th\u01b0\u1eddng": 774,
  "\u2581gi\u1edd": 775,
  "\u00ecm": 776,
  "\u2581d\u01b0": 777,
  "\u5c31\u662f": 778,
  "\u2581th\u1ee9": 779,
  "\u2581v\u1ebb": 780,
  "\u1ea3ng": 781,
  "\u2581xu\u1ea5t": 782,
  "\u2581\u59dc\u601d\u5357": 783,
  "\u2581h\u1ecfi": 784,
  "\u2581l\u1ea1nh": 785,
  "\u00e3i": 786,
  "\u2581chi\u1ebfn": 787,
  "\u2581khi\u1ebfn": 788,
  "\u2581d\u00f9ng": 789,
  "\u2581\u0111o": 790,
  "\u8fd8\u662f": 791,
  "\u2581Nh\u01b0ng": 792,
  "\u2581\u0111\u01b0\u1eddng": 793,
  "\u51fa\u6765": 794,
  "\u2581bi\u1ebfn": 795,
  "\u2581s\u1ee3": 796,
  "\u6211\u4eec": 797,
  "\u01b0\u1edbng": 798,
  "\u1ea9m": 799,
  "\u2581bao": 800,
  "\u600e\u4e48": 801,
  "\u2581h\u01a1i": 802,
  "\u2581b\u00ecnh": 803,
  "\u2581Ho\u00e0ng": 804,
  "\u90fd\u662f": 805,
  "\u2581v\u1eadt": 806,
  "\u2581r\u00f5": 807,
  "i\u00eam": 808,
  "\u2581m\u1ea5y": 809,
  "\u2581b\u01b0\u1edbc": 810,
  "\u2581nh\u1ecf": 811,
  "\u2581s\u00e1ng": 812,
  "\u1ecbch": 813,
  "\u1ecfa": 814,
  "\u2581\u0111\u1ed9t": 815,
  "\u00fai": 816,
  "\u2581b\u1ed9": 817,
  "\u2581s\u1ed1": 818,
  "\u00e1u": 819,
  "\u2581ph\u01b0\u01a1ng": 820,
  "\u65f6\u5019": 821,
  "\u2581M\u1ed9": 822,
  "\u2581Th\u1ea1ch": 823,
  "\u2581\u0111\u1ee9ng": 824,
  "\u2581\u0111\u00e1nh": 825,
  "\u2581D\u01b0\u01a1ng": 826,
  "\u2581Nguy\u1ec7t": 827,
  "\u2581b\u1ecdn": 828,
  "\u2581nay": 829,
  "\u2581quang": 830,
  "\u2581ai": 831,
  "\u1eb7ng": 832,
  "\u2581Tr\u01b0\u01a1ng": 833,
  "\u2581lo\u1ea1i": 834,
  "\u2581H\u1eafn": 835,
  "\u2581thanh": 836,
  "\u2581gi\u1eef": 837,
  "\u2581b\u1ea3o": 838,
  "\u2581ch\u00ed": 839,
  "\u2581nhanh": 840,
  "\u2581V\u0169": 841,
  "\u2581qu\u1ea3": 842,
  "\u2581\u0111\u1ed9": 843,
  "\u2581t\u00ecnh": 844,
  "\u1ec9nh": 845,
  "\u65f6\u95f4": 846,
  "\u2581xem": 847,
  "\u2581Kh\u00f4ng": 848,
  "\u2581gi\u1ed1ng": 849,
  "\u4e4b\u4e2d": 850,
  "\u2581kh\u1ecfi": 851,
  "\u2581h\u00ecnh": 852,
  "\u2581\u0110\u1ea1o": 853,
  "\u53ef\u4ee5": 854,
  "\u1ea1ng": 855,
  "\u1ec3n": 856,
  "\u2581c\u1ee9": 857,
  "\u2581c\u01b0\u1eddng": 858,
  "\u1eafp": 859,
  "\u2581tr\u1eddi": 860,
  "\u2581n\u01a1i": 861,
  "\u00edt": 862,
  "\u2581Sinh": 863,
  "\u2581Ti\u1ec3u": 864,
  "\u2581t\u00ecm": 865,
  "\u2581Kim": 866,
  "\u53ea\u662f": 867,
  "\u4e5f\u4e0d": 868,
  "\u2581tho": 869,
  "\u00e9t": 870,
  "\u2581\u82cf\u843d": 871,
  "i\u1ebfc": 872,
  "\u2581d\u01b0\u1edbi": 873,
  "\u2581t\u1ed1t": 874,
  "\u2581Tr\u01b0\u1eddng": 875,
  "\u2581Th\u00e1nh": 876,
  "\u2581Ma": 877,
  "\u2581do": 878,
  "\u2581m\u1ecdi": 879,
  "\u2581t\u1ed9c": 880,
  "\u2581cu\u1ed1i": 881,
  "\u2581th\u01b0\u01a1ng": 882,
  "\u2581A": 883,
  "\u2581b\u1eaft": 884,
  "\u5357\u5bab": 885,
  "\u2581L\u01b0u": 886,
  "\u2581tinh": 887,
  "\u2581ngay": 888,
  "\u2581\u0111\u1ec7": 889,
  "\u2581ho\u00e0n": 890,
  "\u2581tin": 891,
  "\u2581nh\u00e0": 892,
  "\u2581tr\u1ecdng": 893,
  "\u2581\u00f4ng": 894,
  "\u2581t\u00ean": 895,
  "\u2581mang": 896,
  "\u00fat": 897,
  "\u2581hi\u1ec3u": 898,
  "\u2581\u0111\u1ed3ng": 899,
  "\u1ed7i": 900,
  "\u2581c\u1ea5p": 901,
  "\u2581h\u1ea1": 902,
  "\u2581ch\u1eafc": 903,
  "\u56e0\u4e3a": 904,
  "\u2581Minh": 905,
  "\u2581truy\u1ec1n": 906,
  "i\u1ec3n": 907,
  "\u2581xa": 908,
  "\u2581h\u00e0nh": 909,
  "\u2581\u0111i\u1ec1u": 910,
  "\u2581\u8042\u79bb": 911,
  "\u7684\u4eba": 912,
  "\u2581m\u1ea5t": 913,
  "\u2581kho": 914,
  "\u2581Hi\u00ean": 915,
  "\u2581L\u1ee5c": 916,
  "L\u00e2m": 917,
  "\u4fbf\u662f": 918,
  "\u00f4m": 919,
  "\u2581hay": 920,
  "\u2581Phong": 921,
  "\u2581tr\u01b0\u1edfng": 922,
  "\u8fd9\u4e48": 923,
  "\u5982\u6b64": 924,
  "\u2581d\u1ef1": 925,
  "\u2581\u0111\u1ea7y": 926,
  "\u1eb1m": 927,
  "\u2581Ngh": 928,
  "\u2581s\u00e1t": 929,
  "\u2581r\u1eb1ng": 930,
  "\u2581nguy\u00ean": 931,
  "\u2581T\u00edch": 932,
  "\u8fd9\u4e9b": 933,
  "\u1ee5ng": 934,
  "\u2581s\u0129": 935,
  "\u2581\u0111en": 936,
  "\u1ea5m": 937,
  "\u2581\u00e2m": 938,
  "Nh": 939,
  "\u2581v\u00e0i": 940,
  "\u2581gi\u1ebft": 941,
  "\u2581t\u00ednh": 942,
  "\u2581Nh\u01b0": 943,
  "\u2581th\u00eam": 944,
  "\u4e00\u9053": 945,
  "\u2581c\u1eeda": 946,
  "\u6240\u4ee5": 947,
  "\u2581l\u00e2u": 948,
  "\u2581n\u0103ng": 949,
  "\u5927\u7684": 950,
  "\u2581Ch\u00e2n": 951,
  "\u2581\u0111\u1ea5t": 952,
  "uy\u1ec3n": 953,
  "\u8fd9\u4e00": 954,
  "\u2581c\u1ef1c": 955,
  "Ng": 956,
  "\u2581h\u00f3a": 957,
  "\u1ed5ng": 958,
  "\u1eefu": 959,
  "\u2581\u0110an": 960,
  "\u5fc3\u4e2d": 961,
  "\u2581m\u00f4n": 962,
  "\u2581n\u01b0\u1edbc": 963,
  "\u2581ch\u1ea1": 964,
  "\u2581t\u1ea5t": 965,
  "\u2581m\u00e0u": 966,
  "\u2581Ph\u00e0m": 967,
  "\u76ee\u5149": 968,
  "\u867d\u7136": 969,
  "\u2581ti\u1ebfn": 970,
  "\u4f46\u662f": 971,
  "\u2581ch\u1eb3ng": 972,
  "\u2581bay": 973,
  "\u53ef\u80fd": 974,
  "\u2581huy": 975,
  "\u2581kh\u1ebd": 976,
  "\u1ec7nh": 977,
  "\u4e4b\u540e": 978,
  "\u4eba\u7684": 979,
  "\u2581l\u1ed9": 980,
  "\u2581\u0111\u00e2u": 981,
  "\u00e1y": 982,
  "i\u1ec7m": 983,
  "\u2581M\u1ed9t": 984,
  "\u2581\u0111\u1ecba": 985,
  "\u2581B\u1ea1ch": 986,
  "\u2581\u00edt": 987,
  "\u2581th\u00f4i": 988,
  "\u957f\u751f": 989,
  "\u2581qu\u00e2n": 990,
  "\u1eb7p": 991,
  "\u80fd\u591f": 992,
  "\u9648\u8ff9": 993,
  "\u90a3\u4e9b": 994,
  "\u1ec3m": 995,
  "\u4e0a\u7684": 996,
  "\u2581N\u1ebfu": 997,
  "\u77f3\u8f69": 998,
  "\u4e0b\u6765": 999,
  "\u2581s\u1ee9c": 1000,
  "\u6d41\u4e91": 1001,
  "\u2581\u4ed6": 1002,
  "\u2581b\u00e0n": 1003,
  "\u2581nhau": 1004,
  "\u2581C\u1ea3nh": 1005,
  "\u1ee3p": 1006,
  "\u58f0\u97f3": 1007,
  "\u2581\u0111i\u1ec3m": 1008,
  "\u2581th\u00f4ng": 1009,
  "\u2581l\u01b0\u1ee3ng": 1010,
  "\u2581gi\u00e1c": 1011,
  "...\"": 1012,
  "\u2581phong": 1013,
  "Ch": 1014,
  "\u4f60\u4eec": 1015,
  "\u2581h\u1ecdc": 1016,
  "\u2581ti\u1ec3u": 1017,
  "\u2581trung": 1018,
  "\u2581li\u00ean": 1019,
  "\u00f3i": 1020,
  "\u2581suy": 1021,
  "\u00e3n": 1022,
  "\u2581y\u00eau": 1023,
  "\u2581Ki\u1ebfm": 1024,
  "\u1edfi": 1025,
  "i\u1ec5n": 1026,
  "\u2581ng\u1edd": 1027,
  "Kh\u01b0\u01a1ng": 1028,
  "\u2581Ti\u00eau": 1029,
  "\u8fd9\u6837": 1030,
  "\u7136\u540e": 1031,
  "\u8fd9\u91cc": 1032,
  "\u2581\u0111an": 1033,
  "\u8fd8\u6709": 1034,
  "\u2581c\u00e2u": 1035,
  "\u2581th\u00fa": 1036,
  "\u7684\u4e00": 1037,
  "\u2581quay": 1038,
  "\u2581ph\u1ea7n": 1039,
  "\u2581b\u1eb1ng": 1040,
  "\u2581n\u00fai": 1041,
  "\u2581\u0111\u1ed5i": 1042,
  "\u674e\u51e1": 1043,
  "\u2581chu": 1044,
  "\u4e8b\u60c5": 1045,
  "\u00f3c": 1046,
  "\u2581ch\u1ed7": 1047,
  "\u2581m\u01b0\u1eddi": 1048,
  "\u2581v\u00e0ng": 1049,
  "\u8fd9\u79cd": 1050,
  "\u2581m\u1edf": 1051,
  "\u2581Di\u1ec7p": 1052,
  "\u2581Chu": 1053,
  "\u2581vi\u00ean": 1054,
  "\u2581g\u1ea7n": 1055,
  "\u2581Qu\u00e2n": 1056,
  "i\u1ec7ng": 1057,
  "\u5fae\u5fae": 1058,
  "\u2581\u00c2": 1059,
  "\u2581Thi": 1060,
  "\u2581k\u1ebb": 1061,
  "\u7f57\u5c18": 1062,
  "T\u00f4": 1063,
  "\u00e9m": 1064,
  "\u2581d\u00e0i": 1065,
  "\u2581mi\u1ec7ng": 1066,
  "\u2581n\u1ed5i": 1067,
  "\u4e0d\u4f1a": 1068,
  "\u2581tuy": 1069,
  "\u2581g\u1eb7p": 1070,
  "\u2581h\u1ee3p": 1071,
  "\u2581ch\u1ebf": 1072,
  "\u2581\u6155": 1073,
  "\u5982\u679c": 1074,
  "\u2581quanh": 1075,
  "\u2581ch\u1eadm": 1076,
  "\u2581Ng\u00f4n": 1077,
  "\u2581d\u00e1m": 1078,
  "\u2581ph\u1ee7": 1079,
  "\u2581\u0111\u00e1m": 1080,
  "\u2581Th\u00e0nh": 1081,
  "\u2581\u5357\u5bab": 1082,
  "\u770b\u5230": 1083,
  "\u7684\u8eab": 1084,
  "\u2581l\u1eb7ng": 1085,
  "\u2581tr\u0103m": 1086,
  "\u2581ph\u00f2ng": 1087,
  "\u5f3a\u8005": 1088,
  "\u2581k\u1ebft": 1089,
  "\u2581th\u1ee9c": 1090,
  "\u611f\u89c9": 1091,
  "\u590f\u8a00": 1092,
  "\u7adf\u7136": 1093,
  "\u2581anh": 1094,
  "\u2581Sau": 1095,
  "\u2581Dao": 1096,
  "\u76f4\u63a5": 1097,
  "\u2581Ch\u1ec9": 1098,
  "\u4e16\u754c": 1099,
  "\u2581H\u1ed3ng": 1100,
  "\u2581k\u00edch": 1101,
  "\u2581\u0111\u00e1ng": 1102,
  "\u2581V\u00f4": 1103,
  "\u2581Ninh": 1104,
  "\u2581th\u1edf": 1105,
  "\u2581tuy\u1ec7t": 1106,
  "\u2581cu\u1ed9c": 1107,
  "\u2581\u0111\u01b0a": 1108,
  "......\u201d": 1109,
  "\u2581g\u1eadt": 1110,
  "\u4fee\u70bc": 1111,
  "i\u1ec3m": 1112,
  "\u2581H\u1ea3i": 1113,
  "\u2581m\u00e0y": 1114,
  "\u2581b\u1ecf": 1115,
  "\u2581ph\u1ee5c": 1116,
  "\u1ee7y": 1117,
  "\u5b9e\u529b": 1118,
  "\u2581\u0103n": 1119,
  "\u8fc7\u6765": 1120,
  "\u2581s\u1ed1ng": 1121,
  "\u2581r\u1eddi": 1122,
  "\u2581Th\u00e1i": 1123,
  "\u2581C\u1ed1": 1124,
  "\u2581gi\u1ea3i": 1125,
  "\u2581v\u1ea1n": 1126,
  "\u2581Y\u00eau": 1127,
  "\u2581ch\u1ee9": 1128,
  "\u2581m\u00e1u": 1129,
  "\u2581\u0111\u00fang": 1130,
  "\u5982\u6708": 1131,
  "\u4eff\u4f5b": 1132,
  "\u2581huynh": 1133,
  "\u773c\u795e": 1134,
  "\u2581xong": 1135,
  "\u2581r\u01a1i": 1136,
  "\u4fee\u58eb": 1137,
  "\u1ecbu": 1138,
  "\u2581chuy\u1ec3n": 1139,
  "\u2581gi\u1ecdng": 1140,
  "\u2581ph\u1ee5": 1141,
  "\u2581s\u00e2u": 1142,
  "\u5f00\u59cb": 1143,
  "\u2581th\u1ecb": 1144,
  "\u2581c\u1ea1nh": 1145,
  "\u2581d\u1ea7n": 1146,
  "\u2581\u00e1o": 1147,
  "\u2581\u0111i\u1ec7n": 1148,
  "\u2581gi\u1eefa": 1149,
  "\u2581coi": 1150,
  "\u2581c\u1ed5": 1151,
  "\u2581h\u1ed3n": 1152,
  "\u60f3\u5230": 1153,
  "\u2581l\u00fd": 1154,
  "\u2581nghi": 1155,
  "\u2581t\u0129nh": 1156,
  "\u2581t\u1ee5c": 1157,
  "\u2581\u0111\u00e1": 1158,
  "\u4e0d\u77e5\u9053": 1159,
  "\u2581L\u00f4i": 1160,
  "\u2581t\u01b0\u1edfng": 1161,
  "\u2581tr\u1eafng": 1162,
  "\u2581v\u1ed1n": 1163,
  "\u2581th\u00edch": 1164,
  "\u01b0\u1ee3t": 1165,
  "\u2581d\u01b0\u1eddng": 1166,
  "\u2581h\u1ed9i": 1167,
  "\u5bf9\u65b9": 1168,
  "\u2581Xuy\u00ean": 1169,
  "\u2581so": 1170,
  "\u2581t\u01b0": 1171,
  "\u2581Tinh": 1172,
  "\u2581m\u1eb7c": 1173,
  "\u70b9\u5934": 1174,
  "\u6240\u6709": 1175,
  "\u2581ng\u1ed3i": 1176,
  "\u2581h\u1ebft": 1177,
  "\u60f3\u8981": 1178,
  "\u2581\u1ea3nh": 1179,
  "\u2581\u5929": 1180,
  "\u2581h\u1ed3": 1181,
  "\u7684\u8bdd": 1182,
  "\u2581M\u1eb7c": 1183,
  "\u5374\u662f": 1184,
  "\u1ea1m": 1185,
  "\u2581vi\u1ec7n": 1186,
  "\u90a3\u4e2a": 1187,
  "\u65e0\u6cd5": 1188,
  "\u4e4b\u524d": 1189,
  "\u800c\u4e14": 1190,
  "\u2581\u0111\u00f4i": 1191,
  "\u2581r\u00e0ng": 1192,
  "\u2581ch\u1ea1y": 1193,
  "\u2581nh\u1eb9": 1194,
  "\u2581\u0110\u1ebf": 1195,
  "\u2581ti\u1ec1n": 1196,
  "\u77ac\u95f4": 1197,
  "\u2581U": 1198,
  "\u2581t\u01b0\u1ee3ng": 1199,
  "\u2581gi\u00e1": 1200,
  "\u2581\u0111\u1ee7": 1201,
  "\u2581chi": 1202,
  "\u2581c\u0103n": 1203,
  "\u5982\u4eca": 1204,
  "\u00e9o": 1205,
  "\u2581H\u00e0": 1206,
  "\u2581mu": 1207,
  "\u2581Nh\u00e2n": 1208,
  "\u2581n\u1eafm": 1209,
  "\u2581\u00c1": 1210,
  "\u4e2d\u7684": 1211,
  "\u2581khu": 1212,
  "\u2581d\u01b0\u1ee3c": 1213,
  "\u5c31\u7b97": 1214,
  "\u2581thi\u1ebfu": 1215,
  "\u2581ch\u1eafn": 1216,
  "\u4e00\u822c": 1217,
  "\u2581quy\u1ebft": 1218,
  "\u90a3\u4e48": 1219,
  "\u4e00\u58f0": 1220,
  "\u5e94\u8be5": 1221,
  "\u3002\u300d": 1222,
  "\u2581c\u1eadu": 1223,
  "\u2581tr\u01b0\u1eddng": 1224,
  "\u2581h\u1ed3i": 1225,
  "\u2581m\u1ee9c": 1226,
  "\u6700\u540e": 1227,
  "\u2581gi\u1eadn": 1228,
  "\u2581t\u00f4ng": 1229,
  "\u1ee9t": 1230,
  "\u01b0\u1ee1": 1231,
  "\u82e5\u662f": 1232,
  "\u2581cung": 1233,
  "u\u1ed1c": 1234,
  "\u529b\u91cf": 1235,
  "\u51fa\u4e86": 1236,
  "\u751a\u81f3": 1237,
  "\u2581\u674e": 1238,
  "\u2581bu": 1239,
  "\u1ea3m": 1240,
  "\u2581T\u00f4n": 1241,
  "\u2581nh\u1ecb": 1242,
  "\u2581tr\u1ea7m": 1243,
  "\u7684\u65f6\u5019": 1244,
  "\u1eedu": 1245,
  "\u2581\u0111\u1ea5u": 1246,
  "\u6b64\u65f6": 1247,
  "\u2581h\u00f4m": 1248,
  "\u2581\u0111\u1ed3": 1249,
  "\u2581tia": 1250,
  "\u00e9p": 1251,
  "\u2581b\u00f3ng": 1252,
  "\u2581L\u00fac": 1253,
  "\u2581thay": 1254,
  "\u2581d\u1ee5ng": 1255,
  "\u1ea9y": 1256,
  "\u2581t\u00f4i": 1257,
  "\u2581th\u1eadm": 1258,
  "........": 1259,
  "\u2581ch\u1ecbu": 1260,
  "\u81ea\u7136": 1261,
  "\u2581Nhi": 1262,
  "\u2581\u0111\u1ecf": 1263,
  "\u53ea\u6709": 1264,
  "\u662f\u4e00": 1265,
  "\u4e0d\u80fd": 1266,
  "\u00e9n": 1267,
  "\u2581b\u00ed": 1268,
  "\u2581d\u1eabn": 1269,
  "\u51fa\u73b0": 1270,
  "u\u1ed1t": 1271,
  "\u2581th\u1eb3ng": 1272,
  "\u773c\u775b": 1273,
  "\u1ea7ng": 1274,
  "Nhi\u1ebfp": 1275,
  "\u2581vi": 1276,
  "\u2581tr\u00ed": 1277,
  "\u2581b\u1ed1n": 1278,
  "\u2581bi\u1ec7t": 1279,
  "un": 1280,
  "\u2581Khuy\u1ebft": 1281,
  "\u00fap": 1282,
  "\u5f1f\u5b50": 1283,
  "\u2581r\u00e3i": 1284,
  "\u2581tr\u1ef1c": 1285,
  "\u1edbm": 1286,
  "\u81ea\u5df1\u7684": 1287,
  "\u2581lu\u00f4n": 1288,
  "\u957f\u8001": 1289,
  "\u2581\u0111\u1ec9nh": 1290,
  "\u7075\u5ddd": 1291,
  "\u2581Ng\u1ecdc": 1292,
  "\u8d3a\u7075\u5ddd": 1293,
  "\u6709\u7740": 1294,
  "\u2581v\u1ed9i": 1295,
  "\u2581kh\u1eafc": 1296,
  "\u2581h\u1ec1": 1297,
  "\u3002\u201d\u201c": 1298,
  "\u2581h\u00e0ng": 1299,
  "\u2581\u00c2m": 1300,
  "\u2581ng\u1eebng": 1301,
  "\u1ef1a": 1302,
  "\u2581\u0110\u01b0\u1eddng": 1303,
  "\u4f3c\u4e4e": 1304,
  "\u2581xo": 1305,
  "\u4e86\u8d77\u6765": 1306,
  "\u4e1c\u897f": 1307,
  "\u2581h\u01b0": 1308,
  "\u2581Thu": 1309,
  "\u89c9\u5f97": 1310,
  "\u2581C\u1ed5": 1311,
  "\u2581ph\u1ea9m": 1312,
  "\u00f2a": 1313,
  "\u2581l\u1ee3i": 1314,
  "\u9648\u957f\u751f": 1315,
  "\u2581vang": 1316,
  "\u00f3n": 1317,
  "\u1ed7ng": 1318,
  "\u95ee\u9053": 1319,
  "\u2581ni\u00ean": 1320,
  "\u1ecda": 1321,
  "\u2581\u0111\u1ee3i": 1322,
  "\u2581ho\u1eb7c": 1323,
  "\u2581th\u00e1i": 1324,
  "\u2581s\u1edbm": 1325,
  "\u2581v\u1ecdng": 1326,
  "\u6765\u7684": 1327,
  "\u1ed9n": 1328,
  ",\u201c": 1329,
  "\u53d1\u73b0": 1330,
  "\u2581g\u1ecdi": 1331,
  "\u2581t\u00e0i": 1332,
  "\u2581vu": 1333,
  "\u2581ti\u00eau": 1334,
  "\u2581danh": 1335,
  "\u5979\u7684": 1336,
  "\u2581C\u01a1": 1337,
  "\u5b81\u7f3a": 1338,
  "\u2581\u90a3": 1339,
  "\u2581\u0111\u1ec1": 1340,
  "\u2581th\u01b0": 1341,
  "\u987f\u65f6": 1342,
  "\u2581m\u01b0\u01a1i": 1343,
  "Thi\u00ean": 1344,
  ":\u300c": 1345,
  "\u2581n\u1eeda": 1346,
  "\u1ee3t": 1347,
  "\u2581t\u1ed5": 1348,
  "\u7684\u662f": 1349,
  "\u7684\u795e": 1350,
  "\u6709\u4e00": 1351,
  "\u5ffd\u7136": 1352,
  "\u2581gi\u00fap": 1353,
  "\u2581tu\u1ed5i": 1354,
  "\u2581\u00e1p": 1355,
  "\u2581Kh\u00ed": 1356,
  "\u2581\u1ea5y": 1357,
  "\u2581L\u0103ng": 1358,
  "\u2581c\u1ed1": 1359,
  "\u2581Tuy": 1360,
  "Nam": 1361,
  "\u2581thi": 1362,
  "\u2581\u5728": 1363,
  "\u6c14\u606f": 1364,
  "\u2581xanh": 1365,
  "\u2581C\u00f3": 1366,
  "\u2581ph\u1ea3n": 1367,
  "\u4e0d\u77e5": 1368,
  "\u2581gh": 1369,
  "\u7f13\u7f13": 1370,
  "\u2581S\u01b0": 1371,
  "\u2581t\u1ea7ng": 1372,
  "\u2581d\u1ec5": 1373,
  "\u2581t\u0103ng": 1374,
  "\u2581nghi\u00eam": 1375,
  "\u2581di\u1ec7n": 1376,
  "\u79bb\u5f00": 1377,
  "\u2581\u0111\u1ea1t": 1378,
  "\u2581c\u00e2y": 1379,
  "\u51fa\u4e00": 1380,
  "\u2581b\u00e2y": 1381,
  "\u1eb7n": 1382,
  "\u2581Tam": 1383,
  "\u2581\u6211": 1384,
  "\u2581h\u01b0\u1edbng": 1385,
  "\u2581ng\u1ea1c": 1386,
  "\u8eab\u4e0a": 1387,
  "\u53ef\u662f": 1388,
  "\u4efb\u4f55": 1389,
  "\u2581Hoa": 1390,
  "\u2581ch\u1eb1m": 1391,
  "\u5e26\u7740": 1392,
  "\u2581T\u1eeb": 1393,
  "\u6839\u672c": 1394,
  "\u671b\u7740": 1395,
  "\u2581l\u01b0ng": 1396,
  "\u2581ch\u1ea5n": 1397,
  "\u2581thu\u1eadt": 1398,
  "\u2581t\u1eadn": 1399,
  "\u8fd9\u662f": 1400,
  "\u2581s\u1eafp": 1401,
  "\u2581H\u00f3a": 1402,
  "\u5982\u4f55": 1403,
  "\u2581ch\u1eb7t": 1404,
  "\u2581\u5c0f": 1405,
  "\u2581c\u1ea7u": 1406,
  "\u2581ch\u1eef": 1407,
  "\u2581\u4f60": 1408,
  "\u4e24\u4e2a": 1409,
  "\u2581c\u1ea7m": 1410,
  "\u2581\u1ea9n": 1411,
  "\u9700\u8981": 1412,
  "\u4e00\u773c": 1413,
  "\u2581nh\u1ea1t": 1414,
  "\u5f20\u60ac": 1415,
  "\u2581\u0111\u1eb7c": 1416,
  "\u2581chi\u1ebfc": 1417,
  "\u4e0d\u4f4f": 1418,
  "\u65e0\u6bd4": 1419,
  "\u2581hoa": 1420,
  "\u4f17\u4eba": 1421,
  "\u2581Ng\u01b0\u1eddi": 1422,
  "\u6574\u4e2a": 1423,
  "\u2581\u0110\u1ecb": 1424,
  "\u2581\u0110i\u1ec7n": 1425,
  "\u2581\u0111\u00eam": 1426,
  "\u8fc7\u53bb": 1427,
  "\u771f\u7684": 1428,
  "\u2581m\u1ed7i": 1429,
  "\u2581\u0111o\u1ea1n": 1430,
  "\u7684\u5927": 1431,
  "Ta": 1432,
  "\u2581uy": 1433,
  "\u2581l\u1eafc": 1434,
  "\u1ee9a": 1435,
  "\u2581n\u1ed9i": 1436,
  "\u2581H\u1eefu": 1437,
  "\u2581x\u00e1c": 1438,
  "\u4e00\u7b11": 1439,
  "\u2581\u800c": 1440,
  "\u7b2c\u4e00": 1441,
  "\u2581H\u00e0n": 1442,
  "\u2581\u1ee9ng": 1443,
  "\u2581\u4e00": 1444,
  "\u2581giao": 1445,
  "\u2581Ph\u01b0\u01a1ng": 1446,
  "\u2581B\u00e0n": 1447,
  "\u2581dung": 1448,
  "\u2581Th\u1ebf": 1449,
  "Kh\u00f4ng": 1450,
  "\u2581nh\u1edb": 1451,
  "\u2581H\u1eafc": 1452,
  "\u65e0\u6570": 1453,
  "\u2581Ta": 1454,
  "\u2581M\u00e0": 1455,
  "\u2581tr\u1ebb": 1456,
  "\u2581Chi": 1457,
  "\u1eb9p": 1458,
  "\u2581H\u1ecfa": 1459,
  "\u7136\u800c": 1460,
  "\u2581gi\u00f3": 1461,
  "\u2581tr\u00e0n": 1462,
  "\u9762\u524d": 1463,
  "\u2581d\u1ecb": 1464,
  "\u91cc\u7684": 1465,
  "\u2581M\u00f4n": 1466,
  "\u7a81\u7136": 1467,
  "\u2581t\u01b0\u01a1ng": 1468,
  "\u2581vui": 1469,
  "\u53d8\u5f97": 1470,
  "\u2581th\u1ea5t": 1471,
  "\u2581ng\u00e0n": 1472,
  "\u2581nam": 1473,
  "\u4e00\u6837": 1474,
  "\u2581ph\u00f9": 1475,
  "\u2581ma": 1476,
  "\u2581ki\u1ebfn": 1477,
  "\u5929\u5730": 1478,
  "\u2581l\u1eeda": 1479,
  "\u2581An": 1480,
  "\u1ea1p": 1481,
  "Tr": 1482,
  "\u2581v\u1ebft": 1483,
  "\u8eab\u4f53": 1484,
  "i\u1ec5u": 1485,
  "\u2581t\u1ea1o": 1486,
  "\u00e3nh": 1487,
  "\u2581tr\u1ea3": 1488,
  "\u4e00\u76f4": 1489,
  "\u2581th\u1ea1ch": 1490,
  "\u53ea\u80fd": 1491,
  "\u4e4b\u4e0a": 1492,
  "\u2581b\u1ed7ng": 1493,
  "\u2581ch\u00f3ng": 1494,
  "\u2581h\u1eadu": 1495,
  "\u770b\u5411": 1496,
  "\u2581k\u00e9o": 1497,
  "\u2581Hai": 1498,
  "\u5728\u4e86": 1499,
  "\u8272\u7684": 1500,
  "\u5176\u4ed6": 1501,
  "\u2581C\u1eedu": 1502,
  "\u2581y\u00ean": 1503,
  "\u2581Vi\u00eam": 1504,
  "\u5c31\u5728": 1505,
  "\u2581ki\u1ebfp": 1506,
  "\u2581\u0111ao": 1507,
  "\u2581l\u00e1t": 1508,
  "\u01b0\u1ee1ng": 1509,
  "\u2581h\u1eefu": 1510,
  "\u2581th\u01b0\u1ee3ng": 1511,
  "\u2581\u0110\u00e2y": 1512,
  "\u00f3e": 1513,
  "\u2581\u0111\u1eddi": 1514,
  "\u2581ph\u00e2n": 1515,
  "\u2581t\u1ed1i": 1516,
  "\u1edbp": 1517,
  "\u00e3y": 1518,
  "\u2581m\u1ec9": 1519,
  "\u2581h\u1ec7": 1520,
  "\u4e3a\u4e86": 1521,
  "\u2581th\u1ea7m": 1522,
  "\u2581\u5357\u5bab\u6d41\u4e91": 1523,
  "\u2581Th\u00f4ng": 1524,
  "\u2581c\u00e1nh": 1525,
  "\u2581h\u1ed9": 1526,
  "\u7684\u58f0\u97f3": 1527,
  "\u2581ng\u01b0\u1ee3c": 1528,
  "\u00e2ng": 1529,
  "\u2581d\u1eebng": 1530,
  "\u660e\u767d": 1531,
  "\u2581tranh": 1532,
  "\u5730\u65b9": 1533,
  "\u542c\u5230": 1534,
  "\u8fdb\u5165": 1535,
  "\u2581huy\u1ebft": 1536,
  "\u2581\u0110\u1ecba": 1537,
  "\u2581Quang": 1538,
  "\u2581Nh\u1eefng": 1539,
  "\u2581t\u00e1c": 1540,
  "\u7ee7\u7eed": 1541,
  "\u2581chu\u1ea9n": 1542,
  "\u2581Nh\u00ecn": 1543,
  "\u2581Anh": 1544,
  "\u2581v\u01b0\u1ee3t": 1545,
  "\u5f88\u591a": 1546,
  "\u2581x\u1ea3y": 1547,
  "\u2581T\u1ed5": 1548,
  "\u2581\u0111\u1eebng": 1549,
  "\u2581kh\u1ea3": 1550,
  "\u2581Tuy\u1ebft": 1551,
  "\u2581Dung": 1552,
  "\u2581l\u01b0u": 1553,
  "\u90fd\u4e0d": 1554,
  "\u2581tung": 1555,
  "\u2581v\u1ec7": 1556,
  "\u2581ch\u1ea5t": 1557,
  "\u2581b\u00e1o": 1558,
  "\u53ea\u8981": 1559,
  "\u2581v\u1ea5n": 1560,
  "\u2581t\u00edch": 1561,
  "\u2581xung": 1562,
  "\u2581Tu": 1563,
  "\u2581\u0111o\u00e1n": 1564,
  "\u2581d\u1ef1a": 1565,
  "\u2581d\u00e1ng": 1566,
  "\u2581y\u1ebfu": 1567,
  "\u2581kim": 1568,
  "\u2581Tr\u00fac": 1569,
  "\u2581Th\u01b0\u01a1ng": 1570,
  "\u4e4b\u529b": 1571,
  "\u2581b\u1ed1i": 1572,
  "\u2581\u0111u": 1573,
  "\u2581t\u00e1n": 1574,
  "\u2581H\u00e0nh": 1575,
  "\u5883\u754c": 1576,
  "\u2581\u0111\u1eb7t": 1577,
  "\u2581Tang": 1578,
  "\u7684\u90a3": 1579,
  "\u2581lao": 1580,
  "\u5bf9\u4e8e": 1581,
  "\u2581ho\u00e0ng": 1582,
  "\u4e86\u4e00\u4e0b": 1583,
  "\u4e24\u4eba": 1584,
  "\u2581\u00c1nh": 1585,
  "\u2581m\u1ea1ng": 1586,
  "\u4e0d\u5f97": 1587,
  "\u2581hi\u1ec3m": 1588,
  "\u2581th\u00fac": 1589,
  "\u4e00\u4e9b": 1590,
  "\u00edu": 1591,
  "\u2581Ph\u00f9": 1592,
  "\u2581h\u00e3i": 1593,
  "\u2581\u5979": 1594,
  "\u5b8c\u5168": 1595,
  "\u2581v\u00f2ng": 1596,
  "\u2581hi\u1ec7u": 1597,
  "\u4fee\u4e3a": 1598,
  "\u2581\u9f99": 1599,
  "\u7b11\u9053": 1600,
  "\u2581quy\u1ec1n": 1601,
  "\u2581cu\u1ed3ng": 1602,
  "\u2581Huy\u1ebft": 1603,
  "\u4e4b\u95f4": 1604,
  "\u2581k\u1ef9": 1605,
  "\u2581c\u1ee9u": 1606,
  "\u2581m\u00f9": 1607,
  "\u2581V\u1ea1n": 1608,
  "\u9762\u8272": 1609,
  "\u2581thu\u1ed9c": 1610,
  "\u2581\u0111au": 1611,
  "\u2581v\u1ee5": 1612,
  "\u2581\u0111\u01b0\u01a1ng": 1613,
  "\u771f\u662f": 1614,
  "\u2581th\u1ea5p": 1615,
  "\u53e3\u6c14": 1616,
  "\u2581t\u1ee5": 1617,
  "\u2581Gi\u1edbi": 1618,
  "\u4e0d\u5230": 1619,
  "\u51fa\u624b": 1620,
  "\u4e00\u4e0b": 1621,
  "\u2581\u5927": 1622,
  "\u00eang": 1623,
  "\u8138\u8272": 1624,
  "\u4e0b\u7684": 1625,
  "\u2581Kinh": 1626,
  "\u6447\u5934": 1627,
  "\u2581k\u1ecb": 1628,
  "\u2581tan": 1629,
  "\u2581ch\u1edbp": 1630,
  "\u2581nhi\u00eau": 1631,
  "\u2581an": 1632,
  "\u2581che": 1633,
  "\u2581Tr\u00ean": 1634,
  "\u6b64\u523b": 1635,
  "\u2581t\u1ed1c": 1636,
  "\u2581gi\u00e1o": 1637,
  "\u5927\u4eba": 1638,
  "\u4e00\u8d77": 1639,
  "\u2581li\u1ec7u": 1640,
  "\u770b\u4e86": 1641,
  "\u4e4b\u8272": 1642,
  "Ng\u01b0\u01a1i": 1643,
  "\u9635\u6cd5": 1644,
  "\u800c\u662f": 1645,
  "\u7a7a\u95f4": 1646,
  "\u2581Ng\u01b0\u01a1i": 1647,
  "\u2581n\u1eb1m": 1648,
  "\u2581t\u1eadp": 1649,
  "\u2581xe": 1650,
  "\u2581\u0111\u00e0n": 1651,
  "\u2581h\u1ea1i": 1652,
  "\u770b\u6765": 1653,
  "\u2581tr\u00e1nh": 1654,
  "u\u00e2n": 1655,
  "\u95ee\u9898": 1656,
  "\u2581\u0111\u1ed9c": 1657,
  "\u5176\u4e2d": 1658,
  "\u2581Th\u1ee7y": 1659,
  "\u2581\u6155\u5982\u6708": 1660,
  "\u2581m\u1ea1ch": 1661,
  "\u4ee5\u4e3a": 1662,
  "\u2581run": 1663,
  "\u2581ch\u1ee9ng": 1664,
  "\u80af\u5b9a": 1665,
  "\u2581l\u0129nh": 1666,
  "\u5bb6\u4f19": 1667,
  "\u2581ch\u1ecdn": 1668,
  "\u7684\u624b": 1669,
  "\u2581v\u1eadn": 1670,
  "\u2581\u1ea2": 1671,
  "\u2581b\u1edfi": 1672,
  "\u2581\u0111\u01a1n": 1673,
  "\u2581ng\u1ef1a": 1674,
  "\u5149\u8292": 1675,
  "\u773c\u524d": 1676,
  "\u2581nh\u00edu": 1677,
  "\u2581\u0111\u1ed9i": 1678,
  "\u8fd9\u4f4d": 1679,
  "i\u1ec5m": 1680,
  "\u2581tri\u1ec1u": 1681,
  "\u50cf\u662f": 1682,
  "\u2581ch\u1edd": 1683,
  "\u2581phi": 1684,
  "\u2581\u987e": 1685,
  "\u4e00\u70b9": 1686,
  "\u2581r\u1ed1t": 1687,
  "\u2581T\u1ec1": 1688,
  "\u2581m\u1ebd": 1689,
  "\u51c6\u5907": 1690,
  "\u2581ng\u01b0ng": 1691,
  "\u2581ng\u00e0i": 1692,
  "\u2581m\u0169": 1693,
  "\u2581qu\u1ef7": 1694,
  "\u1ecdt": 1695,
  "\u7ec8\u4e8e": 1696,
  "\u6e05\u695a": 1697,
  "\u4f60\u7684": 1698,
  "\u2581Qu\u1ed1c": 1699,
  "\u2581t\u01b0\u1edbng": 1700,
  "\u65e2\u7136": 1701,
  "\u6de1\u6de1": 1702,
  "\u540c\u65f6": 1703,
  "\u2581sai": 1704,
  "\u5f53\u7136": 1705,
  "\u51e0\u4e2a": 1706,
  "\u2581m\u1ec9m": 1707,
  "\u1ee7ng": 1708,
  "\u6211\u7684": 1709,
  "\u7ad9\u5728": 1710,
  "\u2581Cho": 1711,
  "\u2581ch\u00e9m": 1712,
  "\u865a\u7a7a": 1713,
  "\u2581hung": 1714,
  "\u2581minh": 1715,
  "\u2581L\u00e3o": 1716,
  "\u2581\u0111\u1ea3o": 1717,
  "\u2581s\u1eed": 1718,
  "\u2581di\u1ec7t": 1719,
  "\u2581l\u1eafng": 1720,
  "\u2581\u0111\u00e1p": 1721,
  "\u671d\u7740": 1722,
  "\u2581Nghe": 1723,
  "\u2581b\u0103ng": 1724,
  "\u2581nh\u1eadp": 1725,
  "\u2581tho\u00e1t": 1726,
  "\u2581ngh\u0129a": 1727,
  "\u2581Ng\u0169": 1728,
  "\u2581qu\u00e1i": 1729,
  "\u2581phu": 1730,
  "\u2581\u4e91": 1731,
  "\u2581v\u0103n": 1732,
  "\u2581t\u1ebf": 1733,
  "\u2581\u1ea2nh": 1734,
  "\u2581H\u1ea1o": 1735,
  "\u8138\u4e0a": 1736,
  "\u4fee\u884c": 1737,
  "\u2581n\u01b0\u01a1ng": 1738,
  "\u2581kh\u00e1ch": 1739,
  "\u5e08\u5144": 1740,
  "\u2581ph\u00e1i": 1741,
  "\u89c1\u5230": 1742,
  "\u2581Tr\u00ec": 1743,
  "\u2581\u0111\u1eb9p": 1744,
  "\u2581b\u1ea3y": 1745,
  "\u1ed7n": 1746,
  "\u6210\u4e86": 1747,
  "\u8bd7\u8bd7": 1748,
  "\u2581s\u00e1ch": 1749,
  "\u7b49\u4eba": 1750,
  "\u00f3t": 1751,
  "\u2581l\u00f3e": 1752,
  "\u2581o": 1753,
  "\u7684\u4e8b\u60c5": 1754,
  "\u2581\u1ea5n": 1755,
  "\u2581\u0111\u1ee1": 1756,
  "\u2581ph\u1ea5t": 1757,
  "\u2581v\u1ee1": 1758,
  "\u2581binh": 1759,
  "\u2581\u0110\u00f4ng": 1760,
  "\u2581m\u00f4i": 1761,
  "\u2581tai": 1762,
  "\u2581th\u1eeba": 1763,
  "\u2581kh\u1ed5": 1764,
  "\u2581\u0110\u1ed3": 1765,
  "\u2581Ngay": 1766,
  "\u2581N\u00e0ng": 1767,
  "\u1eadc": 1768,
  "\u7476\u7476": 1769,
  "\u1ec1m": 1770,
  "\u6050\u6015": 1771,
  "\u2581h\u1ecfa": 1772,
  "\u6d88\u5931": 1773,
  "\u800c\u51fa": 1774,
  "\u2581l\u00f9ng": 1775,
  "\u2581quy": 1776,
  "\u2581Nh\u1ea5t": 1777,
  "\u2581l\u1ea1": 1778,
  "\u6ca1\u60f3\u5230": 1779,
  "\u2581Hoang": 1780,
  "\u2581d\u0129": 1781,
  "\u2581Khi": 1782,
  "\u00f9y": 1783,
  "\u51fa\u53bb": 1784,
  "\u2581Nh\u00e3": 1785,
  "\u2581C\u00e1c": 1786,
  "\u2581\u82cf": 1787,
  "\u4e0d\u8981": 1788,
  "\u2581d\u1eady": 1789,
  "\u2581b\u00e0": 1790,
  "\u5e76\u4e0d": 1791,
  "\u1ed5n": 1792,
  "\u2581kho\u1ea3ng": 1793,
  "\u2581m\u1ea3nh": 1794,
  "\u2581Phi": 1795,
  "\u2581quen": 1796,
  "\u2581Vi\u1ec7n": 1797,
  "\u6709\u4eba": 1798,
  "\u2581Tr\u1eadn": 1799,
  "\u6bd5\u7adf": 1800,
  "\u5c45\u7136": 1801,
  "\u2581ng\u1ecdn": 1802,
  "\u2581b\u1ea1i": 1803,
  "\u5728\u8fd9": 1804,
  "\u2581ng\u0103n": 1805,
  "\u771f\u6b63": 1806,
  "\u2581D\u00f9": 1807,
  "\u7684\u5c0f": 1808,
  "\u8eab\u540e": 1809,
  "\u2581k\u1ecbp": 1810,
  "\u2581tri\u1ec3n": 1811,
  "\u8bf4\u8bdd": 1812,
  "\u2581nguy": 1813,
  "\u6765\u4e86": 1814,
  "\u6155\u5982\u6708": 1815,
  "\u4e86\u4e00\u58f0": 1816,
  "\u2581th\u1eafng": 1817,
  "\u2581Uy": 1818,
  "\u901f\u5ea6": 1819,
  "\u2581d\u1eef": 1820,
  "\u2581xoay": 1821,
  "\u2581t\u1ef1a": 1822,
  "\u2581\u0111\u00f4ng": 1823,
  "\u91cc\u9762": 1824,
  "\u1ebfp": 1825,
  "\u2581H\u01a1n": 1826,
  "\u2581m\u0169i": 1827,
  "?\u201d\u201c": 1828,
  "\u2581th\u00e1ng": 1829,
  "\u2581gi\u1ea5u": 1830,
  "\u2581r\u00fat": 1831,
  "\u1ea9ng": 1832,
  "\u2581s\u00e1u": 1833,
  "\u2581ni\u1ec7m": 1834,
  "\u2581lo\u1ea1n": 1835,
  "\u5f3a\u5927": 1836,
  "\u2581d\u00e0ng": 1837,
  "\u5012\u662f": 1838,
  "\u1ea9u": 1839,
  "\u7a81\u7834": 1840,
  "\u2581\u0111em": 1841,
  "\u5bf9\u7740": 1842,
  "\u2581n\u1ed5": 1843,
  "\u2581gi\u1ea3n": 1844,
  "\u2581\u0111\u1ed5": 1845,
  "\u2581ti\u1ec7n": 1846,
  "\u2581t\u1ecfa": 1847,
  "\u2581t\u00e1m": 1848,
  "\u611f\u89c9\u5230": 1849,
  "\u4e00\u4e1d": 1850,
  "\u2581h\u00f2a": 1851,
  "\u2581ng\u1ea9ng": 1852,
  "\u2581t\u1ef7": 1853,
  "\u2581bi\u1ec3n": 1854,
  "\u2581t\u00e0n": 1855,
  "\u2581m\u1ec7nh": 1856,
  "\u2581kh\u1ed5ng": 1857,
  "\u521a\u624d": 1858,
  "\u2581l\u1ed3": 1859,
  "\u8d70\u4e86": 1860,
  "\u4e00\u6b21": 1861,
  "\u2581b\u1ea7u": 1862,
  ".\u201d": 1863,
  "\u53d1\u751f": 1864,
  "\u1ecfng": 1865,
  "\u2581t\u1ed3n": 1866,
  "\u4e0d\u5c11": 1867,
  "\u975e\u5e38": 1868,
  "\u0110\u1ea1i": 1869,
  "\u2581B\u1eafc": 1870,
  "\u53bb\u4e86": 1871,
  "\u2581b\u1ea1c": 1872,
  "\u7537\u4eba": 1873,
  "\u2581ph\u1eadn": 1874,
  "\u2581tr\u1ea1ng": 1875,
  "\u4f53\u5185": 1876,
  "\u2581l\u1eafm": 1877,
  "\u2581Quan": 1878,
  "\u2581N\u00f3i": 1879,
  "\u53d1\u51fa": 1880,
  "\u2581Li\u1ec5u": 1881,
  "\u2581ch\u00edn": 1882,
  "\u9732\u51fa": 1883,
  "\u2581n\u1eb7ng": 1884,
  "\u2581xuy\u00ean": 1885,
  "\u2581b\u1eafn": 1886,
  "\u2581im": 1887,
  "\u1eb3n": 1888,
  "\u2581b\u1ed1": 1889,
  "\u2581\u4e0d\u8fc7": 1890,
  "\u2581qu\u00fd": 1891,
  "\u2581D\u1ea1": 1892,
  "\u2581\u0111u\u1ed5i": 1893,
  "\u539f\u672c": 1894,
  "\u2581\u0111i\u00ean": 1895,
  "\u2581b\u1eadc": 1896,
  "\u2581M\u1ed9c": 1897,
  "\u2581t\u00f4n": 1898,
  "\u4e4b\u4e0b": 1899,
  "\u76ef\u7740": 1900,
  "\u2581thi\u1ebft": 1901,
  "\u2581ch\u1ed1ng": 1902,
  "\u51e0\u4e4e": 1903,
  "\u2581t\u01b0\u01a1i": 1904,
  "\u518d\u6b21": 1905,
  "\u2581qu\u1ed1c": 1906,
  "\u968f\u7740": 1907,
  "\u2581khu\u00f4n": 1908,
  "\u2581tr\u00f4ng": 1909,
  "\u2581ca": 1910,
  "\u2581giai": 1911,
  "\u773c\u4e2d": 1912,
  "\u2581t\u1ea5n": 1913,
  "\u2581ng\u00f3n": 1914,
  "\u2581th\u1eadn": 1915,
  "\u2581tuy\u1ebft": 1916,
  "\u6050\u6016": 1917,
  "\u2581s\u01a1n": 1918,
  "\u2581nh\u1ecbn": 1919,
  "\u2581h\u1eafc": 1920,
  "\u2581v\u01b0\u01a1ng": 1921,
  "\u2581n\u1ee5": 1922,
  "\u2581m\u01a1": 1923,
  "\u624b\u4e2d": 1924,
  "\u6c89\u9ed8": 1925,
  "\u2581Ph\u00e1p": 1926,
  "\u8ba9\u4ed6": 1927,
  "\u6709\u70b9": 1928,
  "on": 1929,
  "\u9020\u5316": 1930,
  "\u2581ng\u1ecdc": 1931,
  "\u2581ch\u01b0\u1edfng": 1932,
  "\u591a\u5c11": 1933,
  "\u771f\u4eba": 1934,
  "\u2581tr\u00ec": 1935,
  "\u2581li\u1ec7t": 1936,
  "\u2581b\u00e9": 1937,
  "\u2581b\u1ee9c": 1938,
  "\u2581th\u1eed": 1939,
  "\u5e76\u6ca1\u6709": 1940,
  "\u8fd9\u624d": 1941,
  "\u4e0d\u65ad": 1942,
  "\u2581Li\u00ean": 1943,
  "\u7684\u5929": 1944,
  "\u2581l\u1ec7": 1945,
  "\u2581ng\u1ee7": 1946,
  "\u2581lu\u1ed3ng": 1947,
  "\u4e00\u5b9a": 1948,
  "\u2581Vi\u00ean": 1949,
  "\u2581h\u1eb3n": 1950,
  "\u2581kh\u1eafp": 1951,
  "\u2581M\u00f4ng": 1952,
  "\u2581\u53f6": 1953,
  "\u2581R": 1954,
  "\u2581u": 1955,
  "\u6765\u5230": 1956,
  "\u00e8n": 1957,
  "\u7684\u529b\u91cf": 1958,
  "\u2581l\u00f4i": 1959,
  "\u58f0\u9053": 1960,
  "\u2581tra": 1961,
  "\u6218\u6597": 1962,
  "\u2581tr\u1ed1n": 1963,
  "\u4e09\u5341": 1964,
  "\u2581Th\u01b0": 1965,
  "\u8f7b\u8f7b": 1966,
  "\u2581ng\u1ed9": 1967,
  "\u2581k\u1ec3": 1968,
  "\u2581l\u1ec5": 1969,
  "\u4e3a\u4ec0\u4e48": 1970,
  "\u2581\u0111\u1eafc": 1971,
  "\u2581li\u1ebfc": 1972,
  "\u2581l\u1ee5c": 1973,
  "\u5e73\u9759": 1974,
  "\u2581ngang": 1975,
  "\u663e\u7136": 1976,
  "\u2581b\u00e0i": 1977,
  "\u2581K\u1ef3": 1978,
  "\u4f4f\u4e86": 1979,
  "\u2581h\u1ea1n": 1980,
  "\u2581t\u00f9y": 1981,
  "\u2581nh\u1eafc": 1982,
  "\u2581v\u1ef1c": 1983,
  "\u2581tho\u00e1ng": 1984,
  "\u7709\u5934": 1985,
  "\u2581Gi\u00e1o": 1986,
  "\u4e39\u836f": 1987,
  "?\u300d": 1988,
  "\u6709\u4ec0\u4e48": 1989,
  "\u2581ph\u00f3": 1990,
  "\u2581t\u01b0\u1eddng": 1991,
  "\u54ea\u91cc": 1992,
  "\u2581m\u1eadt": 1993,
  "\u2581H\u1ed3n": 1994,
  "\u7684\u9053": 1995,
  "\u9752\u5c71": 1996,
  "\u7b51\u57fa": 1997,
  "\u2581ha": 1998,
  "\u2581c\u1ea9n": 1999,
  "\u2581tr\u1ee3": 2000,
  "\u4eba\u90fd": 2001,
  "\u60c5\u51b5": 2002,
  "\u5b58\u5728": 2003,
  "\u2581b\u00e1n": 2004,
  "\u529e\u6cd5": 2005,
  "\u7247\u523b": 2006,
  "\u2581k\u00ednh": 2007,
  "\u2581ki\u00ean": 2008,
  "\u5bb6\u7684": 2009,
  "\u96be\u9053": 2010,
  "\u2581\u7d2b": 2011,
  "\u624d\u80fd": 2012,
  "\u4e3a\u4f55": 2013,
  "\u2581t\u1ec9nh": 2014,
  "\u5f88\u5feb": 2015,
  "\u5b66\u9662": 2016,
  "\u673a\u4f1a": 2017,
  "\u2581T\u1ea1o": 2018,
  "\u5230\u5e95": 2019,
  "\u65e0\u5c18": 2020,
  "\u529f\u6cd5": 2021,
  "\u8d8a\u6765": 2022,
  "\u2581tr\u00e1ch": 2023,
  "\u2581em": 2024,
  "\u2581Lan": 2025,
  "\u1ecbnh": 2026,
  "\u66f4\u662f": 2027,
  "\u2581Ch\u00e2u": 2028,
  "\u2581tr\u1ea5n": 2029,
  "\u2581tr\u00ecnh": 2030,
  "\u4e0b\u53bb": 2031,
  "\u2581D\u1ecbch": 2032,
  "\u2581k\u00eau": 2033,
  "\u8d8a\u6765\u8d8a": 2034,
  "\u96be\u4ee5": 2035,
  "\u01b0\u1ee3n": 2036,
  "\u4ee5\u53ca": 2037,
  "\u7b11\u5bb9": 2038,
  "\u4e5f\u6ca1\u6709": 2039,
  "\u4e86\u4e0b\u6765": 2040,
  "\u65cb\u5373": 2041,
  "\u2581C\u00f2n": 2042,
  "\u6d85\u69c3": 2043,
  "\u70b9\u4e86": 2044,
  "\u2581sang": 2045,
  "\u2581tham": 2046,
  "\u2581\u590f\u8a00": 2047,
  "\u2581T\u00e2m": 2048,
  "\u2014\u2014": 2049,
  "\u786e\u5b9e": 2050,
  "\u90fd\u6ca1\u6709": 2051,
  "\u2581g\u00e2y": 2052,
  "\u2581ng\u1ef1c": 2053,
  "\u2581chi\u00eau": 2054,
  "\u4e00\u7247": 2055,
  "\u8fdc\u5904": 2056,
  "\u4e0d\u53ef": 2057,
  "\u5728\u90a3": 2058,
  "\u4e0d\u6562": 2059,
  "\u2581trang": 2060,
  "\u6709\u4e86": 2061,
  "\u2581ch\u1ee3t": 2062,
  "\u2581r\u1ef1c": 2063,
  "\u2581h\u1eadn": 2064,
  "\u2581h\u1ed5": 2065,
  "\u4eca\u5929": 2066,
  "\u2581m\u00ea": 2067,
  "L\u00fd": 2068,
  "\u2581\u00d4": 2069,
  "\u2581di\u1ec5n": 2070,
  "\u51fa\u73b0\u5728": 2071,
  "\u2581gi\u00e0": 2072,
  "\u7684\u7075": 2073,
  "\u5148\u751f": 2074,
  "\u653b\u51fb": 2075,
  "\u9e3f\u8499": 2076,
  "\u2581ban": 2077,
  "\u2581\u795e": 2078,
  "\u6765\u8bf4": 2079,
  "\u800c\u53bb": 2080,
  "............": 2081,
  "\u7edd\u5bf9": 2082,
  "\u2581k\u1ebf": 2083,
  "\u2581Th\u01b0\u1ee3ng": 2084,
  "\u2581l\u00e1": 2085,
  "\u2581c\u1ee9ng": 2086,
  "\u2581\u0111\u1ecbch": 2087,
  "\u2581\u00f4m": 2088,
  "\u5341\u5206": 2089,
  "\u2581\u0111\u1ebf": 2090,
  "\u5fcd\u4e0d\u4f4f": 2091,
  "\u4e00\u79cd": 2092,
  "\u2581mua": 2093,
  "\u2581t\u00ed": 2094,
  "\u2581x\u00fac": 2095,
  "\u2581n\u00f3ng": 2096,
  "\u2581b\u1ea1o": 2097,
  "\u2581\u4e0d": 2098,
  "\u4e00\u8fb9": 2099,
  "\u2581d\u1ea5u": 2100,
  "\u610f\u601d": 2101,
  "\u2581m\u1eebng": 2102,
  "\u2581kh\u00f4i": 2103,
  "\u2581ch\u1ea1m": 2104,
  "\u5f3a\u5927\u7684": 2105,
  "\u5143\u795e": 2106,
  "\u9ed1\u8272": 2107,
  "\u2581r\u1ed9ng": 2108,
  "\u6216\u8005": 2109,
  "\u6216\u8bb8": 2110,
  "M\u1ed9": 2111,
  "\u4e0d\u4e86": 2112,
  "\u2581\u0110\u00fang": 2113,
  "\u2581lui": 2114,
  "\u5f53\u5e74": 2115,
  "\u540c\u6837": 2116,
  "\u2581Tr\u01b0\u1edbc": 2117,
  "\u2581Lang": 2118,
  "i\u00eang": 2119,
  "\u2581c\u00fai": 2120,
  "\u2581Lam": 2121,
  "\u679c\u7136": 2122,
  "\u2581ti\u1ebfc": 2123,
  "\u4f9d\u7136": 2124,
  "Long": 2125,
  "\u2581th\u1ecbt": 2126,
  "\u2581H\u1ed3": 2127,
  "\u2581s\u01a1": 2128,
  "\u2581Nh\u1ecb": 2129,
  "\u53e5\u8bdd": 2130,
  "\u5973\u5b50": 2131,
  "\u2581th\u1ea3n": 2132,
  "\u2581h\u00e0o": 2133,
  "\u5148\u524d": 2134,
  "\u6781\u4e3a": 2135,
  "\u2581ngo\u1ea1i": 2136,
  "\u5176\u5b9e": 2137,
  "\u9664\u4e86": 2138,
  "\u2581\u0110\u1ed1i": 2139,
  "\u2581qu\u1ea3n": 2140,
  "\u2581u\u1ed1ng": 2141,
  "\u2581lu\u1eadn": 2142,
  "\u2581t\u1ea7m": 2143,
  "\u7b11\u7740": 2144,
  "\u9646\u957f\u751f": 2145,
  "\u7684\u76ee\u5149": 2146,
  "\u2581Luy\u1ec7n": 2147,
  "\u54cd\u8d77": 2148,
  "\u2581bi\u1ec3u": 2149,
  "\u5468\u56f4": 2150,
  "\u70b9\u4e86\u70b9\u5934": 2151,
  "\u00f9a": 2152,
  "\u770b\u770b": 2153,
  "\u2581nh\u00e1y": 2154,
  "\u1eabm": 2155,
  "\u2581kh\u00e1": 2156,
  "\u2581Th\u1eadp": 2157,
  "\u2581v\u0169": 2158,
  "\u2581xin": 2159,
  "\u2581s\u1ea1ch": 2160,
  "\u72e0\u72e0": 2161,
  "\u2581di": 2162,
  "\u521a\u521a": 2163,
  "\u5982\u540c": 2164,
  "\u2581Y\u00ean": 2165,
  "\u5f7b\u5e95": 2166,
  "\u4e00\u80a1": 2167,
  "\u2581vai": 2168,
  "\u2581t\u1ea5m": 2169,
  "\u2581\u00e9p": 2170,
  "\u2581Ba": 2171,
  "\u822c\u7684": 2172,
  "\u2581nh\u1ea3y": 2173,
  "\u2581ch\u1eebng": 2174,
  "\u2581V\u1eeba": 2175,
  "\u5b69\u5b50": 2176,
  "\u2581Hoan": 2177,
  "\u56de\u6765": 2178,
  "\u2581tr\u00e1i": 2179,
  "\u5e74\u8f7b": 2180,
  "\u5973\u4eba": 2181,
  "\u662f\u4ec0\u4e48": 2182,
  "\u2581l\u1ea1c": 2183,
  "\u2581ph\u00fa": 2184,
  "\u5bb6\u65cf": 2185,
  "\u5f97\u5230": 2186,
  "\u2581v\u00f5": 2187,
  "\u6b63\u662f": 2188,
  "\u4e86\u4e00\u4e2a": 2189,
  "\u2581x\u1ebfp": 2190,
  "\u2581B\u1ea3o": 2191,
  "\u2581l\u1ec7nh": 2192,
  "\u81f3\u4e8e": 2193,
  "\u2581\u6797": 2194,
  "\u1eabu": 2195,
  "\u91d1\u4e39": 2196,
  "\u5728\u8fd9\u91cc": 2197,
  "\u5c31\u7b97\u662f": 2198,
  "\u4e00\u6b65": 2199,
  "\u2581\u0111\u00edch": 2200,
  "\u01b0\u1edbi": 2201,
  "\u5317\u8fb0": 2202,
  "\u2581m\u00e2y": 2203,
  "\u666e\u901a": 2204,
  "\u7f57\u5929": 2205,
  "\u5b97\u95e8": 2206,
  "\u800c\u6765": 2207,
  "\u53d8\u5316": 2208,
  "\u2581s\u1edd": 2209,
  "\u2581c\u1ee5c": 2210,
  "\u2581e": 2211,
  "\u2581ch\u1ea3y": 2212,
  "\u2581th\u00f9": 2213,
  "\u8fc7\u4e86": 2214,
  "\u800c\u540e": 2215,
  "\u6d51\u8eab": 2216,
  "\u2581ng\u1ea9n": 2217,
  "\u2581x\u00f4ng": 2218,
  "\u2581c\u1ea3n": 2219,
  "\u1edbt": 2220,
  "L\u01b0u": 2221,
  "\u2581\u00e1c": 2222,
  "\u2581H\u01b0": 2223,
  "Th\u1ea7n": 2224,
  "\u2581h\u1ea3i": 2225,
  "\u2581Tri\u1ec7u": 2226,
  "\u00f9i": 2227,
  "\u7cbe\u795e": 2228,
  "\u5c31\u80fd": 2229,
  "\u5927\u5e08": 2230,
  "\u2581\u0111\u1ee9a": 2231,
  "\u2581M\u1ea1c": 2232,
  "\u2581\u1ed5n": 2233,
  "\u2581t\u00f3c": 2234,
  "\u2581cha": 2235,
  "\u2581k\u00e9m": 2236,
  "\u2581d\u00f2": 2237,
  "\u2581h\u00f4n": 2238,
  "\u2581v\u1ed7": 2239,
  "\u2581v\u00e2y": 2240,
  "\u2581kh\u1ee7ng": 2241,
  "\u2581\u738b": 2242,
  "\u2581Th\u1ea5t": 2243,
  "\u7b80\u5355": 2244,
  "\u8d77\u4e86": 2245,
  "\u597d\u7684": 2246,
  "\u2581\u0110\u1ed3ng": 2247,
  "\u2581l\u1edbp": 2248,
  "\u4e0d\u9519": 2249,
  "\u2581\u1ea3o": 2250,
  "\u2581T\u00e2y": 2251,
  "\u6b63\u5728": 2252,
  "\u6210\u4e3a": 2253,
  "\u2581tr\u1ea3i": 2254,
  "\u2581Nhai": 2255,
  "\u8fd8\u8981": 2256,
  "T\u1eed": 2257,
  "\u2581nh\u1eafm": 2258,
  "...\u201d": 2259,
  "\u2581d\u1ee9t": 2260,
  "\u2581\u0111\u1ea9y": 2261,
  "\u6d88\u606f": 2262,
  "\u2581B\u00ecnh": 2263,
  "\u2581khai": 2264,
  "\u2581th\u1ee5": 2265,
  "\u2581h\u1ea5p": 2266,
  "\u4e5f\u6ca1": 2267,
  "\u2581\u8427": 2268,
  "\u4e86\u4e00\u773c": 2269,
  "\u2581tr\u01b0\u1ee3ng": 2270,
  "\u773c\u795e\u4e2d": 2271,
  "\u2581Ch\u1eb3ng": 2272,
  "\u2581d\u1ea1": 2273,
  "\u2581g\u00e1i": 2274,
  "\u2581Ng\u01b0ng": 2275,
  "\u2581Ph\u01b0\u1ee3ng": 2276,
  "\u597d\u50cf": 2277,
  "\u2581t\u1eafc": 2278,
  "\u662f\u5728": 2279,
  "\u7684\u5b9e\u529b": 2280,
  "\u2581\u0111\u00ecnh": 2281,
  "\u2581V\u00ec": 2282,
  "\u2581ch\u1ee9a": 2283,
  "\u2581c\u0169": 2284,
  "\u2581ng\u1eafn": 2285,
  "\u8eab\u5f71": 2286,
  "\u2581n\u00e1t": 2287,
  "\u2581hoang": 2288,
  "\u7075\u77f3": 2289,
  "\u7b11\u4e86": 2290,
  "\u2581t\u1ed9i": 2291,
  "\u2581m\u00e0n": 2292,
  "\u7684\u4e8b": 2293,
  "\u2581phi\u1ec1n": 2294,
  "\u843d\u5728": 2295,
  "\u2581m\u1eb9": 2296,
  "\u2581Ng\u00f4": 2297,
  "\u2581Ph\u1eadt": 2298,
  "\u671b\u5411": 2299,
  "\u6a21\u6837": 2300,
  "\u91cd\u8981": 2301,
  "\u2581T\u1ea7n": 2302,
  "\u2581kh\u0103n": 2303,
  "\u2581Th\u1ea5y": 2304,
  "\u8bb8\u591a": 2305,
  "\u2581ki\u1ec3m": 2306,
  "\u7684\u5f3a\u8005": 2307,
  "\u2581canh": 2308,
  "\u8ba9\u4eba": 2309,
  "\u2581nh\u00e0ng": 2310,
  "\u2581Kh\u00f4i": 2311,
  "\u2581s\u00f3ng": 2312,
  "\u2581\u0111\u1eadp": 2313,
  "\u2581Th\u00e2n": 2314,
  "\u2581tr\u00e0o": 2315,
  "\u2581c\u1ef1": 2316,
  "\u2581s\u1edf": 2317,
  "\u2581S\u1eafc": 2318,
  "\u2581g\u01b0\u01a1ng": 2319,
  "\u7591\u60d1": 2320,
  "\u2581B\u1ed1i": 2321,
  "\u5e76\u4e14": 2322,
  "\u2581C\u00f4": 2323,
  "\u2581vi\u1ebft": 2324,
  "\u2581S\u01a1": 2325,
  "\u4e4b\u5916": 2326,
  "\u4e1d\u6beb": 2327,
  "\u5173\u7cfb": 2328,
  "\u2581H\u1ed9i": 2329,
  "\u597d\u4e86": 2330,
  "\u4e0d\u540c": 2331,
  "\u2581r\u0103ng": 2332,
  "\u2581\u4f46": 2333,
  "\u5996\u7075": 2334,
  "\u1eb9n": 2335,
  "\u2581ch\u00f3i": 2336,
  "\u2581su\u1ed1t": 2337,
  "\u2581nh\u1eabn": 2338,
  "\u2581ph\u1ea3ng": 2339,
  "\u7b2c\u4e8c": 2340,
  "\u2581Thi\u1ec7u": 2341,
  "\u4ee5\u540e": 2342,
  "\u2581\u0111\u00e2m": 2343,
  "\u4f9d\u65e7": 2344,
  "\u2581tr\u1eeb": 2345,
  "\u01b0\u1ee3u": 2346,
  "\u2581r\u1ea9y": 2347,
  "\u8f6c\u8eab": 2348,
  "\u5c11\u5e74": 2349,
  "\u2581m\u00f3n": 2350,
  "\u6210\u529f": 2351,
  "\u2581h\u01b0\u1edfng": 2352,
  "\u5f00\u53e3": 2353,
  "\u2581m\u00e3n": 2354,
  "\u2581H\u1ecda": 2355,
  "\u5357\u5bab\u6d41\u4e91": 2356,
  "\u7684\u65f6\u95f4": 2357,
  "\u2581Ch\u1ee7": 2358,
  "\u8fd9\u822c": 2359,
  "\u2581t\u00e1i": 2360,
  "\u5b9e\u5728": 2361,
  "\u4e09\u4eba": 2362,
  "\u9762\u7684": 2363,
  "\u65e0\u8bba": 2364,
  "\u4e0b\u4e00": 2365,
  "\u2581th\u1ed1ng": 2366,
  "\u4f20\u6765": 2367,
  "\u4e0d\u7531": 2368,
  "\u2581\u0111\u1ea5y": 2369,
  "\u8fd8\u6ca1": 2370,
  "!\u201d\u201c": 2371,
  "\u8001\u5e08": 2372,
  "\u2581tr\u00f2": 2373,
  "\u2581Huy": 2374,
  "\u2581Qu\u1ef7": 2375,
  "\u2581r\u1eebng": 2376,
  "\u76f8\u4fe1": 2377,
  "\u2581lai": 2378,
  "\u2581\u0110o": 2379,
  "\u2581\u6d41\u4e91": 2380,
  "\u5bb9\u6613": 2381,
  "\u2581ng\u1eadp": 2382,
  "\u54ea\u6015": 2383,
  "\u795e\u8272": 2384,
  "\u2581cu\u1ed9n": 2385,
  "\u2581ng\u0169": 2386,
  "\u559c\u6b22": 2387,
  "\u5728\u4ed6": 2388,
  "\u66f4\u52a0": 2389,
  "\u01b0\u1edbt": 2390,
  "\u2581m\u1ef9": 2391,
  "\u2581Tri\u1ebft": 2392,
  "\u7740\u4e00": 2393,
  "\u2581ph\u00f3ng": 2394,
  "\u2581ph\u1ee9c": 2395,
  "\u2581qu\u00e9t": 2396,
  "\u70bc\u5236": 2397,
  "\u2581Th\u1ea9m": 2398,
  "\u2581m\u1eddi": 2399,
  "\u90a3\u4f4d": 2400,
  "\u53e6\u5916": 2401,
  "\u7684\u5fc3": 2402,
  "\u2581r\u01b0\u1ee3u": 2403,
  "\u2581da": 2404,
  "\u1ee5y": 2405,
  "\u2581Tr\u1ea1ch": 2406,
  "\u8ddd\u79bb": 2407,
  "\u5371\u9669": 2408,
  "\u5fc5\u987b": 2409,
  "\u6ce2\u52a8": 2410,
  "\u2581\u4f46\u662f": 2411,
  "\u9053\u53cb": 2412,
  "\u66fe\u7ecf": 2413,
  "\u795e\u60c5": 2414,
  "\u2581mu\u1ed9i": 2415,
  "\u8bf4\u7684": 2416,
  "\u4e86\u51e0": 2417,
  "\u4e0a\u53bb": 2418,
  "\u2581m\u01b0a": 2419,
  "\u516c\u5b50": 2420,
  "\u2581t\u00fa": 2421,
  "\u2581th\u00e1nh": 2422,
  "\u2581ch\u1ea5p": 2423,
  "\u2581C\u1ef1c": 2424,
  "\u2581Vi\u1ec5n": 2425,
  "\u2581nh\u00e0n": 2426,
  "\u6837\u5b50": 2427,
  "\u5168\u90e8": 2428,
  "\u5f00\u6765": 2429,
  "\u51fa\u6765\u7684": 2430,
  "\u2581kh\u00f3e": 2431,
  "\u627e\u5230": 2432,
  "\u8fd9\u6b21": 2433,
  "\u7adf\u662f": 2434,
  "\u2581Th\u00fa": 2435,
  "\u8fd9\u4e48\u591a": 2436,
  "\u2581x\u01b0\u01a1ng": 2437,
  "\u2581l\u01b0\u1ee3t": 2438,
  "\u2581l\u00f4ng": 2439,
  "\u5c31\u8981": 2440,
  "\u6740\u4e86": 2441,
  "\u2581C\u00f4ng": 2442,
  "\u6e10\u6e10": 2443,
  "\u2581nh\u1ee5c": 2444,
  "\u5750\u5728": 2445,
  "\u1eb7m": 2446,
  "\u7acb\u523b": 2447,
  "\u1ee5i": 2448,
  "\u8eab\u5f62": 2449,
  "\u2581chi\u1ebfu": 2450,
  "\u6700\u7ec8": 2451,
  "\u2581ch\u1ee5c": 2452,
  "\u2581ph\u00fat": 2453,
  "\u2581x\u01b0a": 2454,
  "\u6062\u590d": 2455,
  "\u8bf4\u4e0d": 2456,
  "\u2581\u0111o\u1ea1t": 2457,
  "\u2581Ng\u01b0": 2458,
  "\u2581thu\u1ed1c": 2459,
  "\u4e8c\u4eba": 2460,
  "\u2581c\u1ed9ng": 2461,
  "\u00e3ng": 2462,
  "\u2581su": 2463,
  "\u4e0d\u53ef\u80fd": 2464,
  "N\u1ebfu": 2465,
  "\u7684\u5730\u65b9": 2466,
  "\u2581duy": 2467,
  "\u2581ti\u1ebft": 2468,
  "\u539f\u6765": 2469,
  "\u2581H\u1ed5": 2470,
  "\u2581Tri\u1ec1u": 2471,
  "\u2581thu\u1ea7n": 2472,
  "\u540d\u5e08": 2473,
  "\u2581a": 2474,
  "\u5927\u9053": 2475,
  "\u7684\u6c14\u606f": 2476,
  "Ho": 2477,
  "\u2581gi\u1eadt": 2478,
  "\u2581s\u00e2n": 2479,
  "\u96c5\u54f2": 2480,
  "\u5143\u529b": 2481,
  "\u5219\u662f": 2482,
  "\u2581C\u01b0\u01a1ng": 2483,
  "\u58a8\u753b": 2484,
  "\u4e00\u52a8": 2485,
  "\u53ea\u89c1": 2486,
  "\u5929\u7a7a": 2487,
  "\u2581k\u00fd": 2488,
  "\u2581t\u1ea1p": 2489,
  "\u5e0c\u671b": 2490,
  "\u4e0d\u597d": 2491,
  "\u1ea5c": 2492,
  "\u90a3\u4e00": 2493,
  "\u2581m\u1ee5c": 2494,
  "\u5c31\u8fde": 2495,
  "\u5634\u89d2": 2496,
  "\u2581chung": 2497,
  "\u2581b\u00e9n": 2498,
  "\u6ee1\u662f": 2499,
  "\u2581t\u1ed5n": 2500,
  "\u770b\u89c1": 2501,
  "\u2581x\u1eed": 2502,
  "Ti\u1ec3u": 2503,
  "\u2581n\u00e2ng": 2504,
  "\u611f\u53d7": 2505,
  "\u8eab\u8fb9": 2506,
  "\u2581long": 2507,
  "\u2581t\u00fac": 2508,
  "\u2581\u0111\u00e0i": 2509,
  "\u2581t\u00e0": 2510,
  "\u5c31\u4f1a": 2511,
  "\u8fd8\u80fd": 2512,
  "\u2581h\u1ee7y": 2513,
  "\u2581may": 2514,
  "\u2581B\u1ea5t": 2515,
  "\u2581t\u1ecf": 2516,
  "\u524d\u8f88": 2517,
  "\u2581S\u00e1t": 2518,
  "\u7075\u9b42": 2519,
  "\u541e\u566c": 2520,
  "\u2581'": 2521,
  "\u2581X\u00edch": 2522,
  "\u2581V\u1ef1c": 2523,
  "\u2581mai": 2524,
  "\u7b97\u662f": 2525,
  "\u4e00\u95ea": 2526,
  "\u2581th\u00e2m": 2527,
  "\u7384\u9ec4": 2528,
  "\u5996\u517d": 2529,
  "\u706b\u7130": 2530,
  "\u6851\u6851": 2531,
  "\u2581n\u1ed9": 2532,
  "\u4ed9\u5b50": 2533,
  "\u2581nhi\u1ec7m": 2534,
  "\u2581qu\u00e1t": 2535,
  "\u2581t\u1ec7": 2536,
  "\u7537\u5b50": 2537,
  "\u2581s\u01b0\u01a1ng": 2538,
  "\u62ac\u5934": 2539,
  "\u2581nghi\u1ec7m": 2540,
  "\u4e00\u4f4d": 2541,
  "\u4e8e\u662f": 2542,
  "\u4e8c\u5341": 2543,
  "\u90a3\u79cd": 2544,
  "\u2581ng\u00e3": 2545,
  "\u89c1\u8fc7": 2546,
  "\u2581\u0110\u00ecnh": 2547,
  "\u2581Ch\u00ednh": 2548,
  "\u524d\u65b9": 2549,
  "\u2581g\u1ea5p": 2550,
  "\u70bc\u4e39": 2551,
  "\u7b3c\u7f69": 2552,
  "\u800c\u5df2": 2553,
  "\u95ea\u8fc7": 2554,
  "\u2581Ng\u1eef": 2555,
  "\u2581gi\u00e1p": 2556,
  "\u2581vung": 2557,
  "\u5168\u90fd": 2558,
  "\u795e\u901a": 2559,
  "\u4e09\u4e2a": 2560,
  "\u8868\u60c5": 2561,
  "\u5373\u4fbf": 2562,
  "\u2581c\u1ed7": 2563,
  "\u5dc5\u5cf0": 2564,
  "\u6563\u53d1": 2565,
  "\u4e86\u51fa\u6765": 2566,
  "\u4e0d\u89c1": 2567,
  "\u98a4\u6296": 2568,
  "\u2581\u0111\u00f3ng": 2569,
  "\u2581hy": 2570,
  "\u5929\u5883": 2571,
  "\u6b7b\u4e86": 2572,
  "\u89e3\u91ca": 2573,
  "\u62c5\u5fc3": 2574,
  "\u610f\u8bc6": 2575,
  "\u2581ph\u00e0m": 2576,
  "\u2581th\u1ea3m": 2577,
  "\u2581S\u1edf": 2578,
  "\u2581tr\u1ecb": 2579,
  "\u795e\u79d8": 2580,
  "\u4e5f\u5c31": 2581,
  "\u9707\u60ca": 2582,
  "\u2581\u1ede": 2583,
  "\u2581M\u1ecdi": 2584,
  "\u2581nu\u1ed1t": 2585,
  "\u2581rung": 2586,
  "\u4e0a\u4e86": 2587,
  "\u65b9\u624d": 2588,
  "\u2581Th\u1ef1c": 2589,
  "\u2581c\u1eafn": 2590,
  "\u2581b\u1ea1n": 2591,
  "\u2581L\u01b0\u01a1ng": 2592,
  "\u56e0\u6b64": 2593,
  "\u63a5\u7740": 2594,
  "\u663e\u5f97": 2595,
  "\u2581s\u1eefng": 2596,
  "\u2581t\u1ee9": 2597,
  "\u2581Ch\u00ed": 2598,
  "\u4e0d\u505c": 2599,
  "\u2581V\u00f5": 2600,
  "\u4eca\u65e5": 2601,
  "\u00e8m": 2602,
  "\u5c0f\u5fc3": 2603,
  "\u2581ph\u1ea1m": 2604,
  "\u2581h\u00f9ng": 2605,
  "\u9009\u62e9": 2606,
  "\u65bd\u5c55": 2607,
  "\u4e0b\u4e86": 2608,
  "\u54c8\u54c8": 2609,
  "\u2581nha": 2610,
  "\u7ed9\u6211": 2611,
  "\u4e0d\u7528": 2612,
  "\u2581t\u1ed1n": 2613,
  "\u2581hi\u1ec3n": 2614,
  "\u2581d\u00e2n": 2615,
  "\u2581B\u00e1ch": 2616,
  "\u2581ch\u1eb7n": 2617,
  "\u90fd\u6ca1": 2618,
  "\u52bf\u529b": 2619,
  "\u7ed3\u679c": 2620,
  "\u56de\u53bb": 2621,
  "\u2581ngu": 2622,
  "\u2581b\u1ec7": 2623,
  "\u4e86\u4e2a": 2624,
  "\u4e16\u5bb6": 2625,
  "\u65b9\u5411": 2626,
  "\u2581C\u00e1i": 2627,
  "\u51b7\u7b11": 2628,
  "i\u1ec1m": 2629,
  "\u2581\u0111\u00e1y": 2630,
  "\u4e00\u62b9": 2631,
  "\u6df1\u5904": 2632,
  "\u8fd9\u4ef6": 2633,
  "\u8fdb\u53bb": 2634,
  "\u60f3\u7740": 2635,
  "\u2581\u00e1m": 2636,
  "\u2581d\u01b0\u01a1ng": 2637,
  "\u5fc3\u91cc": 2638,
  "\u2581h\u1eeb": 2639,
  "\u2581x\u1ea5u": 2640,
  "\u5730\u4e0a": 2641,
  "\u2581thu\u1eadn": 2642,
  "\u2581ch\u1ee9c": 2643,
  "\u795e\u9f99": 2644,
  "\u2581ng\u1ea1o": 2645,
  "\u2581ph\u1ea5n": 2646,
  "\u5c0f\u5b50": 2647,
  "\u2581t\u00f2a": 2648,
  "\u9690\u9690": 2649,
  "\u2581T\u00ecnh": 2650,
  "\u2581to\u00e1n": 2651,
  "\u53cc\u624b": 2652,
  "\u2581\u96f7": 2653,
  "\u6709\u6240": 2654,
  "\u2581ki\u1ec7n": 2655,
  "\u56de\u7b54": 2656,
  "\u592a\u5b50": 2657,
  "\u662f\u4e0d\u662f": 2658,
  "\u2581tr\u00f4i": 2659,
  "\u7684\u8bf4\u9053": 2660,
  "\u2581Nh\u01b0\u1ee3c": 2661,
  "\u5b97\u7684": 2662,
  "\u2581Thu\u1ea7n": 2663,
  "\u2581m\u1ea1o": 2664,
  "\u2581cu\u1ed1n": 2665,
  "\u1eedi": 2666,
  "\u2581m\u1edd": 2667,
  "\u5730\u9762": 2668,
  "\u2581ri\u00eang": 2669,
  "\u1ef1ng": 2670,
  "\u624b\u6bb5": 2671,
  "\u5929\u7684": 2672,
  "\u2581lan": 2673,
  "\u2581m\u00e1i": 2674,
  "\u2581d\u1ea1ng": 2675,
  "\u2581thua": 2676,
  "\u2581\u1ea7m": 2677,
  "\u2581\u59dc": 2678,
  "\u53cd\u5e94": 2679,
  "\u91cd\u65b0": 2680,
  "\u2581nh\u1edd": 2681,
  "\u2581ngh\u1ecb": 2682,
  "\u613f\u610f": 2683,
  "\u2581V\u0103n": 2684,
  "\u2581gi\u1ea5y": 2685,
  "\u2581d\u00f2ng": 2686,
  "\u4e0d\u518d": 2687,
  "\u2581T\u1ea5t": 2688,
  "\u2581h\u00f4": 2689,
  "\u2581c\u1eaft": 2690,
  "\u2581s\u00f3t": 2691,
  "\u2581th\u1ea3o": 2692,
  "\u2581Ni\u1ebft": 2693,
  "\u4ec5\u4ec5": 2694,
  "\u2581L\u00e2u": 2695,
  "\u4e0d\u7ba1": 2696,
  "\u90b5\u53f8": 2697,
  "\u01b0\u1edbp": 2698,
  "\u8111\u888b": 2699,
  "\u5f53\u521d": 2700,
  "\u2581\u4e91\u8bd7\u8bd7": 2701,
  "V\u1eady": 2702,
  "\u2581b\u1ea9m": 2703,
  "\u2581\u300c": 2704,
  "\u2581Di\u1ec5m": 2705,
  "\u542c\u8bf4": 2706,
  "\u5c24\u5176": 2707,
  "\u1ee1ng": 2708,
  "\u6d6e\u73b0": 2709,
  "\u9e3f\u8499\u9020\u5316": 2710,
  "\u2581\u5317\u8fb0": 2711,
  "\u2581n\u00e9m": 2712,
  "\u90fd\u4f1a": 2713,
  "\u2581Ti\u1ebfu": 2714,
  "\u2581ho\u1ea1ch": 2715,
  "\u2581ph\u1ed1": 2716,
  "\u5c06\u5176": 2717,
  "\u2581Ng\u1ea1o": 2718,
  "\u2581trai": 2719,
  "\u2581Ngh\u0129": 2720,
  "\u9762\u5bf9": 2721,
  "\u2581qu\u00ean": 2722,
  "\u65e9\u5c31": 2723,
  "\u4e94\u884c": 2724,
  "\u2581gi\u01a1": 2725,
  "\u2581T\u1ef1": 2726,
  "\u2581tr\u00e0": 2727,
  "\u2581nguy\u1ec7n": 2728,
  "\u2581h\u1ed7n": 2729,
  "\u8fd9\u6837\u7684": 2730,
  "\u2581s\u00e1nh": 2731,
  "\u2581tr\u1eebng": 2732,
  "\u6ca1\u6709\u4efb\u4f55": 2733,
  "\u2581Quy\u1ebft": 2734,
  "\u2581qu\u1ea7n": 2735,
  "\u2581l\u1ebdo": 2736,
  "\u2581ch\u00faa": 2737,
  "\u89c6\u7ebf": 2738,
  "\u5389\u5bb3": 2739,
  "\u4ed6\u4eec\u7684": 2740,
  "\u591c\u65e0\u5c18": 2741,
  "\u9ed1\u6697": 2742,
  "\u2581\u0110i\u1ec7p": 2743,
  "\u2581t\u1ea1m": 2744,
  "\u5b50\u5b89": 2745,
  "\u2581B\u1edfi": 2746,
  "\u2581Theo": 2747,
  "C\u00f3": 2748,
  "\u770b\u8d77\u6765": 2749,
  "\u2581qu\u00e1n": 2750,
  "\u5165\u4e86": 2751,
  "\u624b\u638c": 2752,
  "\u8d77\u8eab": 2753,
  "\u518d\u5ea6": 2754,
  "\u5316\u4e3a": 2755,
  "\u5929\u9053": 2756,
  "\u1ec5n": 2757,
  "\u5927\u5bb6": 2758,
  "\u4e0d\u60f3": 2759,
  "\u2581Ho\u00e0n": 2760,
  "\u2581Tr\u1ecdng": 2761,
  "\u4e00\u5207": 2762,
  "\u8d70\u5230": 2763,
  "\u01b0\u1ee1i": 2764,
  "\u6ce8\u610f": 2765,
  "\u2581l\u00e3nh": 2766,
  "\u95ea\u70c1": 2767,
  "\u2581Lu\u00e2n": 2768,
  "\u2581Uy\u00ean": 2769,
  "\u751f\u6b7b": 2770,
  "\u59d1\u5a18": 2771,
  "\u5e74\u524d": 2772,
  "\u2581th\u1ea5u": 2773,
  "\u2581m\u01b0\u1ee3n": 2774,
  "\u8fbe\u5230": 2775,
  "\u2581d\u00e2y": 2776,
  "\u2581v\u00e1ch": 2777,
  "\u2581Di\u1ec7t": 2778,
  "\u6447\u4e86": 2779,
  "\u4e00\u9635": 2780,
  "\u2581d\u00e0y": 2781,
  "\u90a3\u9053": 2782,
  "\u2581th\u1ee7y": 2783,
  "u\u1ec7": 2784,
  "\u4e0d\u5982": 2785,
  "\u731b\u7136": 2786,
  "\u2581Hi\u1ec7n": 2787,
  "\u2581hu\u1ed1ng": 2788,
  "\u2581dao": 2789,
  "\u2581tam": 2790,
  "\u53c8\u662f": 2791,
  "\u5c06\u519b": 2792,
  "\u7684\u786e": 2793,
  "\u7b80\u76f4": 2794,
  "\u2581ghi": 2795,
  "\u25811": 2796,
  "\u4e24\u4f4d": 2797,
  "\u63d0\u5347": 2798,
  "\u4f4d\u7f6e": 2799,
  "\u901a\u8fc7": 2800,
  "\u7f62\u4e86": 2801,
  "\u2581\u00edch": 2802,
  "\u2581V\u1ecb": 2803,
  "\u2581H\u1ecdc": 2804,
  "\u2581d\u01b0\u1ee1ng": 2805,
  "\u4e66\u9662": 2806,
  "\u2581m\u1ed1i": 2807,
  "\u2581v\u00f9ng": 2808,
  "\u592a\u521d": 2809,
  "\u2581chia": 2810,
  "\u2581kh\u1ed1i": 2811,
  "\u2581V\u1eady": 2812,
  "\u2581d\u1eb7m": 2813,
  "\u0110\u00e2y": 2814,
  "\u2581s\u1ed5": 2815,
  "\u2581nhi\u1ec7t": 2816,
  "\u7684\u5251": 2817,
  "\u2581k\u1ecbch": 2818,
  "\u5de8\u5927\u7684": 2819,
  "\u2581\u0110\u1ee9c": 2820,
  "\u9ebb\u70e6": 2821,
  "\u2581t\u1ecda": 2822,
  "\u2581s\u1ee3i": 2823,
  "\u2581c\u01b0\u1edbp": 2824,
  "\u2581chi\u1ebfm": 2825,
  "\u5f25\u6f2b": 2826,
  "\u6447\u4e86\u6447\u5934": 2827,
  "\u2581phun": 2828,
  "\u6cd5\u529b": 2829,
  "\u8981\u662f": 2830,
  "\u2581T\u1ee9": 2831,
  "\u1ec7t": 2832,
  "\u2581h\u00e0n": 2833,
  "\u81f3\u5c11": 2834,
  "\u6bbf\u4e0b": 2835,
  "\u7476\u6c60": 2836,
  "\u2581B\u0103ng": 2837,
  "\u2581Y\u1ebfn": 2838,
  "\u2581d\u1ee5": 2839,
  "\u2581tr\u00f2n": 2840,
  "\u90e8\u5206": 2841,
  "\u2581Chung": 2842,
  "\u00e8o": 2843,
  "\u5a01\u529b": 2844,
  "\u2581h\u1ed3ng": 2845,
  "\u2581bu\u00f4ng": 2846,
  "\u2581c\u1ed1t": 2847,
  "\u1eaby": 2848,
  "\u2581l\u1ed7i": 2849,
  "\u7684\u795e\u8272": 2850,
  "\u2581Duy\u00ean": 2851,
  "\u51dd\u805a": 2852,
  "\u2581c\u01b0\u1ee1ng": 2853,
  "\u2581n\u1edf": 2854,
  "\u9661\u7136": 2855,
  "\u8d70\u53bb": 2856,
  "\u2581thuy\u1ec1n": 2857,
  "\u4e0d\u7136": 2858,
  "\u2581b\u00f9ng": 2859,
  "\u8001\u8005": 2860,
  "\u2581\u1ee8": 2861,
  "\u2581\u0110ao": 2862,
  "\u2581B\u1ed9": 2863,
  "\u5c0f\u7684": 2864,
  "\u2581L\u00e2n": 2865,
  "\u2581m\u1ecb": 2866,
  "\u2581\u9752": 2867,
  "\u5bf9\u624b": 2868,
  "\u2581\u6b64\u65f6": 2869,
  "\u2581H\u1ed7n": 2870,
  "\u2581g\u1eafng": 2871,
  "\u592a\u591a": 2872,
  "\u5c31\u50cf": 2873,
  "\u2581d\u00e2ng": 2874,
  "\u2581d\u1ecbch": 2875,
  "\u2581b\u00e0o": 2876,
  "\u4e5f\u6709": 2877,
  "\u2581\u8fd9\u4e2a": 2878,
  "\u8fd8\u5728": 2879,
  "\u7236\u4eb2": 2880,
  "\u2581tr\u00fang": 2881,
  "\u5c11\u5973": 2882,
  "\u2581nhi": 2883,
  "\u4e09\u5341\u516d": 2884,
  "\u4e4b\u65f6": 2885,
  "\u2581s\u00f4ng": 2886,
  "\u4e2d\u5e74": 2887,
  "\u2581ho\u1ea3ng": 2888,
  "\u2581th\u01b0\u1edfng": 2889,
  "\u2581ch\u0103m": 2890,
  "\u9c9c\u8840": 2891,
  "\u2581m\u1ed9": 2892,
  "\u2581\u7136\u800c": 2893,
  "\u2581h\u00e3y": 2894,
  "\u661f\u8fb0": 2895,
  "\u2581T\u0129nh": 2896,
  "\u544a\u8bc9": 2897,
  "\u2581c\u1edd": 2898,
  "\u6162\u6162": 2899,
  "\u60c5\u7eea": 2900,
  "\u2581s\u1eaft": 2901,
  "\u2581b\u1ec7nh": 2902,
  "\u811a\u6b65": 2903,
  "\u2581h\u00edt": 2904,
  "\u4e4b\u5730": 2905,
  "\u2581ch\u01a1i": 2906,
  "\u2581g\u00e3": 2907,
  "\u2581\u1ee8ng": 2908,
  "\u2581d\u1ea1y": 2909,
  "\u2581ng\u1ed9t": 2910,
  "\u2581ng\u1ef1": 2911,
  "\u2581c\u1ea5m": 2912,
  "\u2581L\u1ea7n": 2913,
  "\u2581Nghi\u00ean": 2914,
  "\u6253\u7b97": 2915,
  "\u2581h\u1ecda": 2916,
  "\u522b\u4eba": 2917,
  "\u2581t\u1ed5ng": 2918,
  "\u72b9\u5982": 2919,
  "\u5f00\u4e86": 2920,
  "\u1eedng": 2921,
  "\u2581h\u00e0i": 2922,
  "\u1ebfch": 2923,
  "\u2581T\u1ed1ng": 2924,
  "\u2581K\u00ednh": 2925,
  "\u2581\u67f3": 2926,
  "\u4e00\u4eba": 2927,
  "\u2581ng\u1ed1c": 2928,
  "\u56db\u5468": 2929,
  "\u2581Phi\u00eau": 2930,
  "\u2581bu\u1ed3n": 2931,
  "\u2581g\u00e0o": 2932,
  "\u2581ch\u1eafp": 2933,
  "\u592b\u4eba": 2934,
  "\u5230\u65f6\u5019": 2935,
  "\u2581nu": 2936,
  "\u5fae\u5fae\u4e00": 2937,
  "\u2581Ph\u00e1": 2938,
  "\u4e4b\u5185": 2939,
  "\u4e43\u662f": 2940,
  "\u2581kho\u1ea3nh": 2941,
  "\u2581c\u1ecf": 2942,
  "\u2581m\u00e3nh": 2943,
  "\u2581th\u0103m": 2944,
  "\u5b89\u9759": 2945,
  "\u70c8\u7684": 2946,
  "\u5927\u9635": 2947,
  "\u2581b\u1ee5i": 2948,
  "\u2581n\u1ea3y": 2949,
  "\u7206\u53d1": 2950,
  "\u81ea\u8eab": 2951,
  "\u2581N\u1eef": 2952,
  "\u2581Chi\u1ebfn": 2953,
  "\u2581kh\u00f3c": 2954,
  "\u8fdb\u4e86": 2955,
  "\u4e00\u65e6": 2956,
  "\u2581th\u1ea3": 2957,
  "\u2581b\u00e1i": 2958,
  "\u2581Di\u1ec7u": 2959,
  "\u2581C\u0169ng": 2960,
  "\u00f3m": 2961,
  "\u53cd\u800c": 2962,
  "\u5927\u9646": 2963,
  "\u2581\u0111\u00f3n": 2964,
  "\u90a3\u91cc": 2965,
  "\u660e\u663e": 2966,
  "\u1ee5p": 2967,
  "\u795e\u6bbf": 2968,
  "\u80fd\u529b": 2969,
  "\u8fd9\u4e00\u6b21": 2970,
  "\u91cd\u7684": 2971,
  "\u5fc5\u7136": 2972,
  "\u7684\u8eab\u4f53": 2973,
  "\u2581T\u1ed9c": 2974,
  "\u2581\u8bf4": 2975,
  "\u5df2\u662f": 2976,
  "\u2581m\u00f2": 2977,
  "\u2581d\u1ef1ng": 2978,
  "\u2581ch\u1ecdc": 2979,
  "\u2581Th\u1ee7": 2980,
  "\u2581Kho": 2981,
  "\u2581\u987e\u9752\u5c71": 2982,
  "\u2581th\u1ea7y": 2983,
  "\u2581Qu\u1ea3": 2984,
  "\u90a3\u662f": 2985,
  "\u2581x\u00e9": 2986,
  "\u7684\u5730": 2987,
  "\u7b11\u4e86\u7b11": 2988,
  "\u2581l\u01b0\u01a1ng": 2989,
  "\u62e5\u6709": 2990,
  "\u6ee1\u4e86": 2991,
  "\u63a5\u4e0b\u6765": 2992,
  "\u2581T\u1ea5n": 2993,
  "\u7d2b\u82b8": 2994,
  "\u7480\u74a8": 2995,
  "\u2581Vu": 2996,
  "\u2581\u0111\u00e0nh": 2997,
  "\u540d\u5b57": 2998,
  "\u2581r\u1ee1": 2999,
  "\u2581kh\u1ea3o": 3000,
  "\u2581v\u1ebd": 3001,
  "\u771f\u6b63\u7684": 3002,
  "\u771f\u4ed9": 3003,
  "\u4ee5\u524d": 3004,
  "\u7684\u8eab\u5f71": 3005,
  "\u4ed6\u662f": 3006,
  "\u4e91\u8bd7\u8bd7": 3007,
  "\u2581ngh\u1ec9": 3008,
  "\u5bdf\u89c9": 3009,
  "\u2581t\u00fai": 3010,
  "\u75af\u72c2": 3011,
  "\u4e00\u4e2a\u4eba": 3012,
  "\u2581b\u00e1t": 3013,
  "\u00eanh": 3014,
  "\u2581Trung": 3015,
  "\u4e00\u8138": 3016,
  "\u53ef\u60dc": 3017,
  "\u8fc5\u901f": 3018,
  "\u2581k\u1ef5": 3019,
  "\u2581\u5f20": 3020,
  "\u72b9\u8c6b": 3021,
  "\u2581L\u1ef1c": 3022,
  "\u2581Ngo": 3023,
  "\u2581n\u1ed7i": 3024,
  "\u773c\u7738": 3025,
  "\u770b\u4e86\u4e00\u773c": 3026,
  "\u2581truy": 3027,
  "\u4e0d\u591a": 3028,
  "\u2581thuy\u1ebft": 3029,
  "\u843d\u4e0b": 3030,
  "\u4e86\u53e3\u6c14": 3031,
  "\u1ee3n": 3032,
  "\u2581ly": 3033,
  "\u2581b\u1ee5ng": 3034,
  "\u2581bu\u1ed9c": 3035,
  "\u2581\u674e\u7476\u7476": 3036,
  "uy\u1ebfn": 3037,
  "\u2581l\u00f9i": 3038,
  "\u76f4\u5230": 3039,
  "\u2581\u0111\u1ee9t": 3040,
  "\u2581\u0110\u1ebfn": 3041,
  "\u2581Th\u1eddi": 3042,
  "\u2581\u0111o\u00e0n": 3043,
  "\u8be1\u5f02": 3044,
  "\u5b83\u4eec": 3045,
  "\u2581th\u1ec9nh": 3046,
  "Dao": 3047,
  "00": 3048,
  "\u8eab\u4e0a\u7684": 3049,
  "\u2581l\u1ecbch": 3050,
  "\u2581L\u00e0": 3051,
  "\u2581h\u1ee9ng": 3052,
  "\u00f9m": 3053,
  "\u4e5f\u4f1a": 3054,
  "\u4f7f\u7528": 3055,
  "\u2581r\u1ed1i": 3056,
  "\u795e\u5b97": 3057,
  "\u2581s\u1ee9": 3058,
  "\u2581huy\u1ec1n": 3059,
  "\u751f\u7684": 3060,
  "\u2581Con": 3061,
  "\u2581\u1ea4": 3062,
  "\u2581\u00e0": 3063,
  "\u3002\u300c": 3064,
  "\u56fd\u6559": 3065,
  "\u2581c\u01a1n": 3066,
  "\u53d8\u6210": 3067,
  "\u5706\u6ee1": 3068,
  "\u2581Ch\u1ea5n": 3069,
  "\u4e0d\u5728": 3070,
  "\u2581th\u00ed": 3071,
  "\u2581\u5723": 3072,
  "\u2581C\u00e0n": 3073,
  "\u9646\u98d8": 3074,
  "Nh\u01b0ng": 3075,
  "\u597d\u5947": 3076,
  "\u90fd\u5728": 3077,
  "\u7ed9\u4f60": 3078,
  "\u2581Khi\u1ebfu": 3079,
  "\u9010\u6e10": 3080,
  "\u2581c\u00e1o": 3081,
  "\u2581kh\u1ed1ng": 3082,
  "\u2581th\u0103ng": 3083,
  "\u2581ki\u00eau": 3084,
  "\u6240\u8c13": 3085,
  "\u2581tr\u1ed1ng": 3086,
  "\u4e00\u540d": 3087,
  "\u6b27\u9633": 3088,
  "\u4f60\u662f": 3089,
  "\u7684\u4e1c\u897f": 3090,
  "\u2581tr\u00f9ng": 3091,
  "\u5929\u624d": 3092,
  "\u6709\u4e9b\u4e0d": 3093,
  "\u2581th\u00e9t": 3094,
  "\u2581tim": 3095,
  "\u8ddf\u7740": 3096,
  "\u2581\u00d4ng": 3097,
  "\u2581ph\u1eabn": 3098,
  "\u51b0\u51b7": 3099,
  "H\u1ed3ng": 3100,
  "\u2581nhu": 3101,
  "\u4e0d\u6210": 3102,
  "\u2581c\u00e2n": 3103,
  "\u2581g\u1ed7": 3104,
  "\u4e4b\u4e00": 3105,
  "\u7684\u8840": 3106,
  "\u63a7\u5236": 3107,
  "\u65e0\u5c3d": 3108,
  "\u5426\u5219": 3109,
  "\u82cd\u767d": 3110,
  "\u8fdb\u6765": 3111,
  "\u6124\u6012": 3112,
  "\u2581[": 3113,
  "\u6df7\u6c8c": 3114,
  "\u88ab\u4eba": 3115,
  "\u2581\u867d\u7136": 3116,
  "\u52a8\u4f5c": 3117,
  "\u89e3\u51b3": 3118,
  "\u2581Di\u00eau": 3119,
  "\u2581khinh": 3120,
  "\u2581\u0110i\u1ec1u": 3121,
  "\u1edbn": 3122,
  "\u2581m\u1ed3": 3123,
  "\u5fae\u5fae\u4e00\u7b11": 3124,
  "\u9752\u5e74": 3125,
  "\u4e86\u8fc7\u6765": 3126,
  "\u2581Tuy\u1ec7t": 3127,
  "\u2581hao": 3128,
  "\u2581m\u00e3": 3129,
  "\u2581T\u01b0\u1edbng": 3130,
  "\u2581v\u1ee5n": 3131,
  "\u4f5c\u4e3a": 3132,
  "\u2581Ph\u1ee7": 3133,
  "\u2581\u5982\u679c": 3134,
  "\u653e\u5fc3": 3135,
  "\u2581\u0110\u00e0o": 3136,
  "\u52a8\u624b": 3137,
  "Ti\u00eau": 3138,
  "\u2581vu\u1ed1t": 3139,
  "\u4e86\u4e00\u4e1d": 3140,
  "\u2581nh\u1ee3t": 3141,
  "\u6837\u7684": 3142,
  "\u4e4b\u6c14": 3143,
  "\u2581\u0111\u1ed1t": 3144,
  "\u2581h\u01b0\u01a1ng": 3145,
  "\u2581mong": 3146,
  "\u4ed9\u754c": 3147,
  "\u2581\u0111\u1ecdc": 3148,
  "\u56de\u5230": 3149,
  "\u2581\u1ee9c": 3150,
  "\u2581b\u00e0y": 3151,
  "\u2581\u6240\u4ee5": 3152,
  "\u2581v\u1eefng": 3153,
  "\u60f3\u4e86": 3154,
  "\u2581...": 3155,
  "\u53ef\u6015": 3156,
  "\u8eab\u4efd": 3157,
  "\u60f3\u8d77": 3158,
  "\u2581ch\u00e1u": 3159,
  "\u8fd9\u8bdd": 3160,
  "\u53ea\u4e0d\u8fc7": 3161,
  "\u51fa\u7684": 3162,
  "\u4e0d\u53ca": 3163,
  "\u2581\u8840": 3164,
  "\u5143\u5a74": 3165,
  "\u2581g\u1ed1c": 3166,
  "\u2581Ch\u00fang": 3167,
  "\u2581b\u1ed5": 3168,
  "\u52a0\u4e0a": 3169,
  "\u7eb7\u7eb7": 3170,
  "\u2581x\u00e1m": 3171,
  "\u2581di\u1ec7u": 3172,
  "\u4e00\u6761": 3173,
  "\u2581gi\u1ea3m": 3174,
  "\u2581O": 3175,
  "\u4ed4\u7ec6": 3176,
  "\u2581T\u1ecbch": 3177,
  "\u795e\u9b42": 3178,
  "\u2581t\u1ea3n": 3179,
  "\u2581th\u1ed5i": 3180,
  "\u5f53\u65f6": 3181,
  "\u51dd\u513f": 3182,
  "\u5c71\u6d77": 3183,
  "\u5475\u5475": 3184,
  "\u7684\u6837\u5b50": 3185,
  "\u2581o\u00e1n": 3186,
  "\u624b\u4e2d\u7684": 3187,
  "\u2581Thi\u1ebfu": 3188,
  "\u2581ch\u1ed1c": 3189,
  "\u2581B\u00ean": 3190,
  "\u8fd8\u771f": 3191,
  "\u2581t\u00f2": 3192,
  "\u2581d\u1ed9i": 3193,
  "\u2581ph\u1ebf": 3194,
  "\u2581T\u01b0\u01a1ng": 3195,
  "\u2581qu\u1ef3": 3196,
  "\u8f6c\u5934": 3197,
  "\u7a76\u7adf": 3198,
  "\u4e5f\u4e0d\u4f1a": 3199,
  "\u4f1a\u513f": 3200,
  "\u81f3\u5c0a": 3201,
  "\u2581\u0111a": 3202,
  "\u2581l\u1eadt": 3203,
  "\u4e86\u4ec0\u4e48": 3204,
  "\u2581tri\u1ec7u": 3205,
  "\u2581kh\u00f4": 3206,
  "\u2581ho\u1ea1t": 3207,
  "\u2581xinh": 3208,
  "\u7fbd\u97f3": 3209,
  "\u90fd\u8981": 3210,
  "\u5148\u5929": 3211,
  "\u5e94\u8be5\u662f": 3212,
  "\u90a3\u5c31": 3213,
  "\u00fdt": 3214,
  "\u2581\u542c\u5230": 3215,
  "\u2581x\u00e9t": 3216,
  "\u4e86\u4e00\u4e9b": 3217,
  "\u2581c\u0103ng": 3218,
  "\u8ba9\u6211": 3219,
  "\u2581l\u01b0\u1edbt": 3220,
  "\u2581Th\u1eeba": 3221,
  "\u2581M\u1ea5y": 3222,
  "\u2581b\u1edd": 3223,
  "\u2581h\u00fat": 3224,
  "V\u00f4": 3225,
  "\u2581kh\u00e1i": 3226,
  "\u2581Ti\u1ec1n": 3227,
  "\u7956\u7b26": 3228,
  "\u70b9\u70b9\u5934": 3229,
  "\u2581Gia": 3230,
  "\u95fb\u8a00": 3231,
  "\u8001\u4eba": 3232,
  "\u2581Xu\u00e2n": 3233,
  "\u2581h\u0103ng": 3234,
  "\u540e\u9762": 3235,
  "\u5b66\u751f": 3236,
  "\u4e00\u53ea": 3237,
  "\u2581ch\u00e1y": 3238,
  "\u51b3\u5b9a": 3239,
  "\u5929\u8d4b": 3240,
  "\u664b\u738b": 3241,
  "\u1ee5m": 3242,
  "\u6240\u5728": 3243,
  "\u6cd5\u5219": 3244,
  "\u5730\u770b\u7740": 3245,
  "\u2581D\u01b0\u1edbi": 3246,
  "\u57ce\u7684": 3247,
  "\u2581Thi\u1ebft": 3248,
  "\u8111\u6d77": 3249,
  "\u2581tr\u1ee5": 3250,
  "\u539f\u56e0": 3251,
  "\u60f3\u6765": 3252,
  "\u5404\u79cd": 3253,
  "\u600e\u4e48\u53ef\u80fd": 3254,
  "\u2581th\u00e1p": 3255,
  "\u6b22\u6b22": 3256,
  "\u2581Lo": 3257,
  "\u672c\u6765": 3258,
  "\u5b9d\u7269": 3259,
  "\u2581l\u1ed7": 3260,
  "\u2581Ki\u1ebfp": 3261,
  "\u2581kh\u00e1ng": 3262,
  "\u2581\u5c31\u5728": 3263,
  "\u8fd8\u4e0d": 3264,
  "\u2581n\u1ee9t": 3265,
  "\u5f71\u54cd": 3266,
  "\u90fd\u6709": 3267,
  "\u2581Truy\u1ec1n": 3268,
  "\u767e\u5e74": 3269,
  "\u7684\u8138": 3270,
  "\u662f\u8c01": 3271,
  "\u624d\u662f": 3272,
  "\u2581m\u00e3i": 3273,
  "\u2581v\u1eb7n": 3274,
  "\u4eb2\u81ea": 3275,
  "\u8fdb\u884c": 3276,
  "\u2581\u0111\u1ed9n": 3277,
  "\u4e5f\u80fd": 3278,
  "\u4f20\u627f": 3279,
  "\u5b9b\u5982": 3280,
  "\u2581h\u1ea7u": 3281,
  "\u2581Cao": 3282,
  "\u5916\u9762": 3283,
  "\u9634\u9633": 3284,
  "\u2581\u0111\u1ea1m": 3285,
  "\u2581\u65e0": 3286,
  "\u2581\u800c\u4e14": 3287,
  "\",": 3288,
  "\u6211\u5c31": 3289,
  "\u592a\u8fc7": 3290,
  "\u2581\u0110\u1ec9nh": 3291,
  "\u2581m\u00f4ng": 3292,
  "\u2581\u0111i\u00eau": 3293,
  "\u4f46\u4ed6": 3294,
  "\u4e86\u4ed6": 3295,
  "\u624b\u6307": 3296,
  "\u7a7a\u4e2d": 3297,
  "\u7684\u611f\u89c9": 3298,
  "\u770b\u4e0d": 3299,
  "\u77ac\u95f4\u5c31": 3300,
  "\u4f51\u4f51": 3301,
  "\u800c\u8d77": 3302,
  "\u2581Danh": 3303,
  "\u6fc0\u52a8": 3304,
  "\u2581\u9648\u8ff9": 3305,
  "\u2581m\u00f9i": 3306,
  "\u662f\u4e2a": 3307,
  "\u1eefa": 3308,
  "\u7075\u6c14": 3309,
  "\u9047\u5230": 3310,
  "\u4e2b\u5934": 3311,
  "\u76f8\u5f53": 3312,
  "\u5728\u4e00\u8d77": 3313,
  "\u6709\u7684": 3314,
  "\u8001\u5934": 3315,
  "\u65b9\u6cd5": 3316,
  "\u4e5f\u8981": 3317,
  "\u5510\u4e09\u5341\u516d": 3318,
  "\u7684\u8eab\u4e0a": 3319,
  "\u62ac\u8d77": 3320,
  "\u76b1\u7709": 3321,
  "\u2581\u00e1n": 3322,
  "\u2581\u4ed6\u4eec": 3323,
  "\u4e5f\u4e0d\u662f": 3324,
  "\u534a\u6b65": 3325,
  "\u2581L\u1ea1i": 3326,
  "\u2581h\u1ea1ch": 3327,
  "\u53cc\u773c": 3328,
  "\u7ecf\u8fc7": 3329,
  "\u2581\u00c1m": 3330,
  "\u91d1\u8272": 3331,
  "\u6210\u7684": 3332,
  "\u2581N\u01b0\u01a1ng": 3333,
  "\u2581duy\u00ean": 3334,
  "\u719f\u6089": 3335,
  "\u8fd9\u7247": 3336,
  "\u2581g\u00f3c": 3337,
  "\u2581Du": 3338,
  "\u2581\u0110\u00f3": 3339,
  "\u8bf4\u4e86": 3340,
  "\u662f\u56e0\u4e3a": 3341,
  "\u610f\u7684": 3342,
  "\u2581\u0111\u1eadm": 3343,
  "\u1eb9t": 3344,
  "\u7b2c\u4e00\u6b21": 3345,
  "\u2581cu\u1ed3n": 3346,
  "\u2581\u767d": 3347,
  "\u2581\u0111\u1ea5m": 3348,
  "\u5f88\u96be": 3349,
  "\u2581M\u1ea1nh": 3350,
  "\u8bf8\u591a": 3351,
  "\u2581g\u1ea7m": 3352,
  "\u5fc3\u5934": 3353,
  "\u2581b\u00e1": 3354,
  "\u4e0a\u6765": 3355,
  "\u65c1\u7684": 3356,
  "\u770b\u5230\u4e86": 3357,
  "\u2581\u9ed1": 3358,
  "\u5bf9\u4ed8": 3359,
  "L\u00f4i": 3360,
  "\u738b\u671d": 3361,
  "\u2581th\u00e1n": 3362,
  "\u2581si\u00eau": 3363,
  "\u2581b\u1eadt": 3364,
  "\u2581l\u1ea9m": 3365,
  "\u2581h\u00f4i": 3366,
  "\u2581mau": 3367,
  "\u2581H\u00f9ng": 3368,
  "\u2581cam": 3369,
  "\u2581T\u1ee5": 3370,
  "\u2581......": 3371,
  "\u516c\u4e3b": 3372,
  "\u2581kh\u1eb3ng": 3373,
  "\u9690\u85cf": 3374,
  "\u2581Th\u00e1p": 3375,
  "\u4e16\u95f4": 3376,
  "\u90fd\u88ab": 3377,
  "\u2581l\u1eabn": 3378,
  "\u2581ch\u1ec9nh": 3379,
  "\u2581gi\u00e0nh": 3380,
  "\u2581nghi\u1ebfn": 3381,
  "\u2581B\u00ed": 3382,
  "\u6de1\u6de1\u7684": 3383,
  "\u8fd9\u4e00\u5e55": 3384,
  "\u547c\u5438": 3385,
  "\u7ed9\u4ed6": 3386,
  "\u878d\u5408": 3387,
  "\u2581ch\u00ecm": 3388,
  "\u2581\u01b0u": 3389,
  "\u4e4b\u4eba": 3390,
  "\u6309\u7167": 3391,
  "\u2581Kh\u00ea": 3392,
  "\u2581L\u1eddi": 3393,
  "\u2581\u01a1n": 3394,
  "\u65e0\u5948": 3395,
  "\u2581Tuy\u1ec1n": 3396,
  "\u2581tho\u1ea3ng": 3397,
  "\u2581h\u00e9t": 3398,
  "\u786e\u5b9a": 3399,
  "\u2581M\u00e3": 3400,
  "\u5f53\u5373": 3401,
  "\u4e0a\u9762": 3402,
  "\u6cd5\u5668": 3403,
  "\u2581gi\u01b0\u1eddng": 3404,
  "\u2581T\u1ea1i": 3405,
  "\u53ea\u6015": 3406,
  "\u2581ng\u00e2m": 3407,
  "\u2581tha": 3408,
  "\u2581b\u1ea1ch": 3409,
  "\u522b\u7684": 3410,
  "\u2581Thu\u1eadt": 3411,
  "\u2581S\u1ef1": 3412,
  "\u2581B\u1ea3n": 3413,
  "\u6cd5\u5b9d": 3414,
  "\u2581l\u1ef1a": 3415,
  "\u5c24\u5176\u662f": 3416,
  "\u4e3b\u4eba": 3417,
  "\u6765\u81ea": 3418,
  "\u2581hi\u1ebfm": 3419,
  "\u653e\u5728": 3420,
  "\u9759\u9759": 3421,
  "\u5bf9\u4ed6": 3422,
  "\u8001\u7956": 3423,
  "\u5730\u9053": 3424,
  "\u2581Th\u1eadt": 3425,
  "\u73b0\u5728\u7684": 3426,
  "Di\u1ec7p": 3427,
  "\u00f3p": 3428,
  "\u65cf\u7684": 3429,
  "\u2581So": 3430,
  "\u2581\u00f4n": 3431,
  "\u2581M\u1ee5c": 3432,
  "\u8fd9\u5bb6\u4f19": 3433,
  "\u1edbng": 3434,
  "\u2581nh\u01b0\u1edbng": 3435,
  "\u65c1\u8fb9": 3436,
  "\u9762\u5bb9": 3437,
  "\u2581\u01b0\u1edbc": 3438,
  "\u5e08\u7236": 3439,
  "\u2581xoa": 3440,
  "\u2581Ti\u1ebfng": 3441,
  "\u62f3\u5934": 3442,
  "\u8089\u8eab": 3443,
  "\u6beb\u65e0": 3444,
  "\u2581so\u00e1t": 3445,
  "\u6bb5\u65f6\u95f4": 3446,
  "\u753b\u9762": 3447,
  "\u2581\u662f": 3448,
  "B\u1eafc": 3449,
  "\u957f\u65f6\u95f4": 3450,
  "\u2581H\u00ecnh": 3451,
  "\u01b0\u01a1n": 3452,
  "\u5b50\u7684": 3453,
  "\u957f\u7684": 3454,
  "Qu": 3455,
  "\u2581,": 3456,
  "\u8bf4\u4ec0\u4e48": 3457,
  "\u2581\u0110\u1ed7": 3458,
  "\u2581T\u00f9ng": 3459,
  "\u51dd\u91cd": 3460,
  "\u2581\u9f99\u7687": 3461,
  "\u4e86\u5427": 3462,
  "\u7075\u529b": 3463,
  "\u59dc\u601d\u5357\u7684": 3464,
  "\u8ba9\u5979": 3465,
  "\u2581gi\u00e1m": 3466,
  "\u2581kh\u1edfi": 3467,
  "\u2581\u0110o\u1ea1n": 3468,
  "\u56de\u5934": 3469,
  "\u590d\u6742": 3470,
  "\u9ad8\u624b": 3471,
  "\u80fd\u91cf": 3472,
  "\u2581b\u1ed9c": 3473,
  "\u2581c\u01a1m": 3474,
  "\u2581To": 3475,
  "\u5e76\u4e0d\u662f": 3476,
  "\u5144\u5f1f": 3477,
  "\u6709\u5bb9": 3478,
  "\u90fd\u80fd": 3479,
  "\u5b50\u91cc": 3480,
  "\u965b\u4e0b": 3481,
  "\u8fd8\u6ca1\u6709": 3482,
  "\u91d1\u5149": 3483,
  "\u2581l\u1ea5p": 3484,
  "\u6025\u5fd9": 3485,
  "\u611f\u5230": 3486,
  "\u672c\u8eab": 3487,
  "\u0110\u00fang": 3488,
  "\u00edn": 3489,
  "\u4f1a\u6709": 3490,
  "\u8db3\u591f": 3491,
  "\u2581ng\u00e2y": 3492,
  "\u2581ng\u1ee5m": 3493,
  "\u76d8\u9f99": 3494,
  "\u2581T\u00fa": 3495,
  "\u2581\u1ea5m": 3496,
  "\u7d27\u5f20": 3497,
  "\u5411\u7740": 3498,
  "\u2581t\u1ea1": 3499,
  "\u4eba\u7c7b": 3500,
  "\u8ba9\u4f60": 3501,
  "\u6548\u679c": 3502,
  "\u2581m\u1ec7t": 3503,
  "\u623f\u95f4": 3504,
  "\u0110\u01b0\u1ee3c": 3505,
  "\u2581\u82e5\u662f": 3506,
  "\u2581San": 3507,
  "\u2581t\u00edm": 3508,
  "\u8fde\u5fd9": 3509,
  "\u4e5f\u4e0d\u77e5\u9053": 3510,
  "\u7559\u4e0b": 3511,
  "\u2581l\u1ea7m": 3512,
  "\u1eb5n": 3513,
  "\u2581\u0111\u00f2n": 3514,
  "\u2581s\u1ea3n": 3515,
  "\u2581kh\u00f3i": 3516,
  "\u611f\u5e94": 3517,
  "\u2581Uy\u1ec3n": 3518,
  "\u96f7\u9706": 3519,
  "\u2581l\u00e9n": 3520,
  "\u591a\u4e45": 3521,
  "\u2581\u0111\u00e8": 3522,
  "\u771f\u541b": 3523,
  "\u00f5m": 3524,
  "\u4e24\u9053": 3525,
  "\u2581\u0111\u1ef1ng": 3526,
  "\u8d44\u683c": 3527,
  "\u72e0\u72e0\u7684": 3528,
  "\u2581n\u1ec1": 3529,
  "\u2581\u674e\u50b2": 3530,
  "\u4e0a\u4e00": 3531,
  "\u591a\u5e74": 3532,
  "\u72b6\u6001": 3533,
  "\u2581\u0110\u1ed5ng": 3534,
  "\u5f90\u6709\u5bb9": 3535,
  "\u2581r\u00e1ch": 3536,
  "\u4ed6\u4e5f": 3537,
  "\u2581M\u1ec7nh": 3538,
  "\u2581gi\u00e1ng": 3539,
  "\u8fdc\u53e4": 3540,
  "\u2581v\u01b0\u01a1n": 3541,
  "\u5916\u7684": 3542,
  "\u6218\u573a": 3543,
  "\u9a6c\u8f66": 3544,
  "\u6253\u91cf": 3545,
  "\u6240\u6709\u4eba": 3546,
  "\u2581Gi\u1ea3": 3547,
  "\u2581\u6155\u96c5\u54f2": 3548,
  "\u2581th\u00f4n": 3549,
  "\u2581tho\u1ea1i": 3550,
  "\u2581Ph\u00ed": 3551,
  "\u4ed6\u5728": 3552,
  "\u2581L\u00ea": 3553,
  "\u2581r\u1eafn": 3554,
  "\u2581\u0110\u1ea3o": 3555,
  "\u7956\u9f99": 3556,
  "\u2581B\u00edch": 3557,
  "\u505a\u4ec0\u4e48": 3558,
  "\u51b7\u51b7": 3559,
  "\u6c14\u52bf": 3560,
  "\u8001\u7237": 3561,
  "\u5f88\u662f": 3562,
  "\u65f6\u8fb0": 3563,
  "\u2581L\u1ec5": 3564,
  "\u60f3\u6cd5": 3565,
  "\u6df1\u6df1": 3566,
  "\u2581............": 3567,
  "\u6570\u5341": 3568,
  "\u4e00\u9053\u9053": 3569,
  "\u597d\u597d": 3570,
  "\u2581h\u1edf": 3571,
  "\u2581B\u1ecdn": 3572,
  "\u2581m\u1ef1c": 3573,
  "\u4f4e\u5934": 3574,
  "\u6b63\u5e38": 3575,
  "\u2581Giang": 3576,
  "\u7b54\u5e94": 3577,
  "Thanh": 3578,
  "\u2581Li\u1ec7t": 3579,
  "\u83b7\u5f97": 3580,
  "\u8ba4\u4e3a": 3581,
  "\u5927\u6982": 3582,
  "\u7a0b\u5ea6": 3583,
  "\u4e0b\u65b9": 3584,
  "\u540e\u6765": 3585,
  "\u2581t\u1ecbch": 3586,
  "\u2581Kh\u00e1nh": 3587,
  "\u5438\u6536": 3588,
  "\u2581\u00c2n": 3589,
  "\u6bd4\u8f83": 3590,
  "\u2581X\u00e0": 3591,
  "\u5728\u4e00": 3592,
  "\u5929\u4e0b": 3593,
  "\u2581tr\u1ea7n": 3594,
  "\u5143\u4e39": 3595,
  "\u4e5d\u5e7d": 3596,
  "\u8bf4\u4e0d\u5b9a": 3597,
  "\u4e00\u628a": 3598,
  "\u2581\u0111\u1eb1ng": 3599,
  "\u2581h\u1ea1ng": 3600,
  "\u4e0d\u4ec5": 3601,
  "\u5fc3\u7684": 3602,
  "\u2581bi\u00ean": 3603,
  "\u4e0d\u8d77": 3604,
  "\u4ee4\u4eba": 3605,
  "\u2581su\u00fdt": 3606,
  "\u5947\u602a": 3607,
  "\u6c14\u7684": 3608,
  "\u2581m\u01b0u": 3609,
  "\u2581l\u0169": 3610,
  "\u4e0d\u4e0a": 3611,
  "\u4ee3\u8868": 3612,
  "\u66f4\u591a": 3613,
  "\u2581l\u00e0n": 3614,
  "\u88ab\u4ed6": 3615,
  "\u4ece\u6765": 3616,
  "\u2581l\u00f2": 3617,
  "\u2581Nhi\u00ean": 3618,
  "\u4e4b\u4e8b": 3619,
  "\u8fdc\u8fdc": 3620,
  "\u2581khi\u1ebfp": 3621,
  "\u2581H\u01b0u": 3622,
  "\u2581\u0110\u1ed9n": 3623,
  "Huy\u1ec1n": 3624,
  "\u90a3\u8fb9": 3625,
  "\u2581n\u00e9n": 3626,
  "\u2581mu\u1ed9n": 3627,
  "\u4e00\u8def": 3628,
  "\u2581l\u1ea7u": 3629,
  "\u2581D\u01b0\u1ee3c": 3630,
  "\u2581ng\u00f4i": 3631,
  "\u8003\u6838": 3632,
  "\u2581du": 3633,
  "\u2581s\u1ea5m": 3634,
  "\u770b\u53bb": 3635,
  "\u2581\u7384": 3636,
  "\u2581\u0111\u00f4": 3637,
  "\u8096\u51dd\u513f": 3638,
  "\u6b7b\u7684": 3639,
  "\u5080\u5121": 3640,
  "\u5bb9\u4e91": 3641,
  "\u6700\u8fd1": 3642,
  "\u2581th\u01a1": 3643,
  "\u2581\u0111\u00e0o": 3644,
  "\u2581\u0110\u00f4": 3645,
  "\u4e00\u4ef6": 3646,
  "\u7279\u6b8a": 3647,
  "\u2581Kh\u1ed5ng": 3648,
  "\u2581\u3010": 3649,
  "\u4e00\u4e2a\u4e2a": 3650,
  "\u8d76\u7d27": 3651,
  "\u2581ph\u00e9p": 3652,
  "\u5173\u952e": 3653,
  "\u2581h\u1ea3": 3654,
  "\u2581C\u1ef1": 3655,
  "\u4e4b\u5904": 3656,
  "\u2581va": 3657,
  "\u83ab\u975e": 3658,
  "\u7ecf\u5386": 3659,
  "\u8fbe\u5230\u4e86": 3660,
  "\u5c38\u4f53": 3661,
  "\u2581H\u1ee9a": 3662,
  "\u2581t\u00edn": 3663,
  "\u968f\u540e": 3664,
  "\u2581ng\u01b0\u1ee1ng": 3665,
  "\u2581\u9648": 3666,
  "\u2581l\u1eeba": 3667,
  "\u80cc\u540e": 3668,
  "\u2581Ca": 3669,
  "\u662f\u6211": 3670,
  "\u2581Ch\u01b0\u01a1ng": 3671,
  "\u9f50\u4f11": 3672,
  "\u2581T\u00e0o": 3673,
  "\u2581V\u1eadn": 3674,
  "\u5f02\u5e38": 3675,
  "\u65e0\u5339": 3676,
  "\u00faa": 3677,
  "\u2581Ng\u1ee5y": 3678,
  "\u5168\u529b": 3679,
  "\u2581\u0111\u1edbn": 3680,
  "\u6beb\u4e0d": 3681,
  "\u540e\u8005": 3682,
  "\u2581Ngao": 3683,
  "\u2581tr\u1ee3n": 3684,
  "\u8ba4\u771f": 3685,
  "\u2581\u0111\u1ed1ng": 3686,
  "\u2581\u5143": 3687,
  "\u5c31\u4e0d": 3688,
  "\u2581c\u1ee5": 3689,
  "\u2581(": 3690,
  "\u2581gh\u00e9t": 3691,
  "\u505a\u5230": 3692,
  "Ch\u1ec9": 3693,
  "\u2581\u0111\u1ea3m": 3694,
  "\u2581Nh\u1ea1c": 3695,
  "\u5343\u5e74": 3696,
  "\u9632\u5fa1": 3697,
  "\u6d1e\u5e9c": 3698,
  "\u6709\u4e00\u79cd": 3699,
  "\u2581d\u1eb7n": 3700,
  "\u54ac\u7259": 3701,
  "\u5373\u4fbf\u662f": 3702,
  "\u7684\u901f\u5ea6": 3703,
  "Th\u00e1i": 3704,
  "\u2581\u53ef": 3705,
  "\u2581d\u1ecda": 3706,
  "\u6240\u6709\u4eba\u90fd": 3707,
  "Ma": 3708,
  "\u5fc3\u795e": 3709,
  "\u2581n\u00e9": 3710,
  "\u2581nh\u00e3": 3711,
  "\u2581oanh": 3712,
  "\u2581ch\u00e9p": 3713,
  "\u60f3\u4e86\u60f3": 3714,
  "\u2581\u5317\u8fb0\u5f71": 3715,
  "\u2581Nham": 3716,
  "\u2581ng\u01a1": 3717,
  "\u2581ch\u1eefa": 3718,
  "\u70bc\u6c14": 3719,
  "\u957f\u5b89": 3720,
  "\u2581\u9b54": 3721,
  "\u8bf4\u8fc7": 3722,
  "\u2581C\u1eadu": 3723,
  "\u5168\u8eab": 3724,
  "\u2581Huy\u1ec5n": 3725,
  "\u2581nghi\u1ec7p": 3726,
  "\u51e0\u5206": 3727,
  "\u5583\u5583": 3728,
  "\u2581C\u1ea3m": 3729,
  "\u610f\u5916": 3730,
  "\u5316\u4f5c": 3731,
  "\u6b64\u4e8b": 3732,
  "\u2581tu\u1ea5n": 3733,
  "\u610f\u5473": 3734,
  "\u5929\u673a": 3735,
  "\u2581b\u00e1ch": 3736,
  "\u2581b\u1eebng": 3737,
  "\u2581l\u00e1nh": 3738,
  "\u2581\u0111i\u1ec7u": 3739,
  "\u5dee\u70b9": 3740,
  "\u4e5f\u5c31\u662f": 3741,
  "\u53f6\u7d2b\u82b8": 3742,
  "\u770b\u7740\u4ed6": 3743,
  "\u2581b\u00f9": 3744,
  "\u2581nghi\u00eang": 3745,
  "\u7405\u5929": 3746,
  "\u2581th\u00e8m": 3747,
  "\u2581t\u1ea3ng": 3748,
  "\u2581ph\u00e1ch": 3749,
  "le": 3750,
  "\u5251\u5149": 3751,
  "\u2581vong": 3752,
  "\u70df\u971e": 3753,
  "\u7684\u5149": 3754,
  "\u2581th\u00ea": 3755,
  "\u8bf4\u662f": 3756,
  "\u2581Hi": 3757,
  "\u2581s\u1eb5n": 3758,
  "\u7b2c\u4e09": 3759,
  "\u51e0\u4f4d": 3760,
  "\u8bf4\u5b8c": 3761,
  "\u81ea\u5bb6": 3762,
  "\u2581d\u1ed1c": 3763,
  "\u5ff5\u5934": 3764,
  "\u65b9\u9752": 3765,
  "\u2581manh": 3766,
  "\u51fa\u58f0": 3767,
  "\u5c06\u4ed6": 3768,
  "\u4e0a\u524d": 3769,
  "\u6210\u5c31": 3770,
  "\u2581Cu\u1ed1i": 3771,
  "\u2581di\u1ec5m": 3772,
  "\u2581\u00dd": 3773,
  "\u60ca\u8bb6": 3774,
  "\u2581b\u1ed9i": 3775,
  "\u2581\u0111\u00f9a": 3776,
  "\u2581thi\u1ec7n": 3777,
  "\u4e86\u4e00\u53e3\u6c14": 3778,
  "\u5bb9\u989c": 3779,
  "\u8fd9\u8fb9": 3780,
  "\u56fd\u6559\u5b66\u9662": 3781,
  "\u2581H\u1eb1ng": 3782,
  "\u4e0d\u52a8": 3783,
  "\u4ed9\u738b": 3784,
  "\u8fd0\u8f6c": 3785,
  "\u2581mi\u1ec5n": 3786,
  "\u5ef6\u821f": 3787,
  "\u2581m\u1eafn": 3788,
  "\u5730\u7684": 3789,
  "\u5f20\u7fbd": 3790,
  "\u670b\u53cb": 3791,
  "\u2581Ph\u1ee5c": 3792,
  "\u542c\u7740": 3793,
  "\u5feb\u901f": 3794,
  "\u865a\u5f71": 3795,
  "\u2581b\u1eadn": 3796,
  "\u2581gh\u1ebf": 3797,
  "\u5e08\u5f1f": 3798,
  "\u2581s\u1ee5p": 3799,
  "\u00f2i": 3800,
  "\u59cb\u7ec8": 3801,
  "\u9e3f\u8499\u9020\u5316\u5854": 3802,
  "\u2581doanh": 3803,
  "\u2581Phu": 3804,
  "\u60f3\u8c61": 3805,
  "\u2581nheo": 3806,
  "\u2581mi\u1ebfng": 3807,
  "\u2581b\u00f2": 3808,
  "\u2581t\u1eb7ng": 3809,
  "\u2581H\u1eadu": 3810,
  "\u2581Ch\u01b0\u1edfng": 3811,
  "\u7740\u7684": 3812,
  "\u8d8a\u53d1": 3813,
  "Huy\u1ebft": 3814,
  "\u2581ph\u1ed1i": 3815,
  "\u2581Giao": 3816,
  "\u2581nh\u1ebfch": 3817,
  "\u4e00\u756a": 3818,
  "\u2581ru": 3819,
  "\u6ca1\u4ec0\u4e48": 3820,
  "\u2581m\u1eafng": 3821,
  "\u2581Th\u1ee9": 3822,
  "\u6ca1\u6709\u4eba": 3823,
  "\u2581\u00c2u": 3824,
  "\u2581c\u1eed": 3825,
  "\u2581h\u00e3n": 3826,
  "!\u201c": 3827,
  "\u2581ch\u00e2u": 3828,
  "\u2581tr\u00fac": 3829,
  "\u4e0d\u5bf9": 3830,
  "\u671b\u7740\u90a3": 3831,
  "\u8fd9\u53e5\u8bdd": 3832,
  "\u2581H\u00f4m": 3833,
  "\u5e76\u975e": 3834,
  "\u8bb0\u5f97": 3835,
  "\u8f7b\u6613": 3836,
  "\u8ba4\u8bc6": 3837,
  "\u513f\u5b50": 3838,
  "\u6b64\u4eba": 3839,
  "\u7384\u9ec4\u754c": 3840,
  "\u591a\u4e86": 3841,
  "\u5973\u513f": 3842,
  "\u2581V\u1ea5n": 3843,
  "\u638c\u63a7": 3844,
  "\u4e0d\u7981": 3845,
  "\u2581Nhu": 3846,
  "\u2581gi\u1ea3ng": 3847,
  "\u5de6\u53f3": 3848,
  "\u2581k\u00ec": 3849,
  "\u2581Gi\u00e1p": 3850,
  "\u7d27\u7d27": 3851,
  "\u9053\u7406": 3852,
  "\u4e86\u8fc7\u53bb": 3853,
  "\u4e0d\u8fc7\u662f": 3854,
  "\u4e00\u53e3": 3855,
  "\u5239\u90a3": 3856,
  "\u6050\u6016\u7684": 3857,
  "\u773c\u524d\u7684": 3858,
  "\u9ec4\u91d1": 3859,
  "\u5c3d\u6570": 3860,
  "\u2581treo": 3861,
  "\u2581\u56e0\u4e3a": 3862,
  "\u2581Gi\u1ecdng": 3863,
  "\u2581sa": 3864,
  "\u2581m\u1ec1m": 3865,
  "\u2581\u0110\u1ec7": 3866,
  "\u2581\u53e4": 3867,
  "\u2581Xem": 3868,
  "\u90a3\u6837": 3869,
  "\u2581t\u1edd": 3870,
  "\u2581chi\u1ec1u": 3871,
  "\u8868\u73b0": 3872,
  "\u7684\u773c\u795e": 3873,
  "\u6d69\u701a": 3874,
  "\u2581\u0110\u1ee3i": 3875,
  "\u2581song": 3876,
  "\u4e0d\u8bf4": 3877,
  "\u2581h\u1ea3o": 3878,
  "\u5bfb\u627e": 3879,
  "\u2581\u90b5\u53f8": 3880,
  "\u5c31\u50cf\u662f": 3881,
  "\u2581\u591c\u65e0\u5c18": 3882,
  "\u2581r\u1ed3ng": 3883,
  "\u75db\u82e6": 3884,
  "\u7ed3\u675f": 3885,
  "\u5b97\u4e3b": 3886,
  "\u2581\u0110\u00e3": 3887,
  "\u7684\u5149\u8292": 3888,
  "\u1ed9m": 3889,
  "\u91d1\u4ed9": 3890,
  "\u96be\u602a": 3891,
  "\u5f62\u6210": 3892,
  "\u2581Kh\u00f4n": 3893,
  "\u7b26\u6587": 3894,
  "\u2581ch\u00f3": 3895,
  "\u8f6e\u56de": 3896,
  "\u2581Gi\u00e0": 3897,
  "\u2581c\u01b0\u01a1ng": 3898,
  "\u800c\u8a00": 3899,
  "\u2581-": 3900,
  "\u6d8c\u52a8": 3901,
  "\u5955\u8fb0": 3902,
  "\u660e\u660e": 3903,
  "\u2581v\u00e2n": 3904,
  "\u2581\u590f": 3905,
  "\u662f\u4ed6": 3906,
  "Ho\u00e0ng": 3907,
  "\u4efb\u52a1": 3908,
  "\u2581Sa": 3909,
  "\u6000\u7591": 3910,
  "\u2581B\u00ec": 3911,
  "\u2581chuy\u1ebfn": 3912,
  "\u2581c\u1ea5t": 3913,
  "\u2581l\u01b0\u1ee1i": 3914,
  "\u4e4b\u610f": 3915,
  "\u2581n\u1ed3ng": 3916,
  "\u5c06\u90a3": 3917,
  "\u2581cong": 3918,
  "\u2581h\u00e1": 3919,
  "\u2581nh\u00f5m": 3920,
  "\u4e07\u4ed9": 3921,
  "\u2581M\u00e3n": 3922,
  "\u53d7\u5230": 3923,
  "\u836f\u6750": 3924,
  "\u4e86\u4e24": 3925,
  "\u53f8\u5f92": 3926,
  "\u8fd9\u65f6": 3927,
  "\u2581b\u1ebf": 3928,
  "\u2581N\u0103m": 3929,
  "\u51cc\u5389": 3930,
  "\u2581D\u01b0": 3931,
  "\u624b\u91cc": 3932,
  "\u7684\u4e00\u58f0": 3933,
  "\u795e\u8bc6": 3934,
  "\u2581d\u1ecdc": 3935,
  "\u6253\u5f00": 3936,
  "\u8fc7\u7684": 3937,
  "\u2581tr\u1eef": 3938,
  "\u8bed\u6c14": 3939,
  "\u5411\u4e86": 3940,
  "\u2581\u7fbd": 3941,
  "\u751f\u547d": 3942,
  "\u7684\u770b\u7740": 3943,
  "Nguy\u00ean": 3944,
  "\u91cd\u4f24": 3945,
  "\u2581\u7d2b\u598d": 3946,
  "\u2581x\u00e2y": 3947,
  "\u6574\u4e2a\u4eba": 3948,
  "\u7687\u5e1d": 3949,
  "\u2581khe": 3950,
  "\u6682\u65f6": 3951,
  "\u2581l\u01a1": 3952,
  "\u9634\u6c89": 3953,
  "\u9a6c\u4e0a": 3954,
  "\u5174\u594b": 3955,
  "\u2581\u1ea4n": 3956,
  "\u2581nu\u00f4i": 3957,
  "\u53c2\u52a0": 3958,
  "\u2581B\u00e1t": 3959,
  "\u2581m\u00eanh": 3960,
  "\u9547\u538b": 3961,
  "\u9053\u4eba": 3962,
  "\u8fd9\u4e24": 3963,
  "\u2581ph\u00e0o": 3964,
  "\u2581Th\u1ee5": 3965,
  "\u795e\u5723": 3966,
  "Ch\u00e2n": 3967,
  "\u2581chui": 3968,
  "\u1eeam": 3969,
  "\u2581chuy\u00ean": 3970,
  "\u611f\u6168": 3971,
  "\u2581d\u1ecbu": 3972,
  "\u79bb\u53bb": 3973,
  "\u2581b\u1ec1": 3974,
  "\u770b\u4e86\u770b": 3975,
  "\u4e4b\u58f0": 3976,
  "\u6709\u53ef\u80fd": 3977,
  "\u2581Nhan": 3978,
  "\u2581chim": 3979,
  "\u2581\u4e5d": 3980,
  "\u2581Mai": 3981,
  "\u65e0\u58f0": 3982,
  "\u7684\u5b58\u5728": 3983,
  "\u5fae\u7b11": 3984,
  "\u90a3\u540d": 3985,
  "\u2581C\u00f9ng": 3986,
  "\u2581ch\u00e9n": 3987,
  "\u90a3\u822c": 3988,
  "\u2581Ph\u1ec7": 3989,
  "\u1ee7i": 3990,
  "\u2581s\u1eeda": 3991,
  "\u2581th\u1eadp": 3992,
  "\u2581\u0111u\u00f4i": 3993,
  "\u9887\u4e3a": 3994,
  "\u2581H\u1ecd": 3995,
  "\u2581\u00e2n": 3996,
  "\u8eab\u5b50": 3997,
  "\u65e9\u5df2": 3998,
  "\u2581T\u1ea1": 3999,
  "\u5927\u4e86": 4000,
  "\u9732\u51fa\u4e86": 4001,
  "\u4e00\u8eab": 4002,
  "\u738b\u8005": 4003,
  "\u95f4\u7684": 4004,
  "\u2581ng\u01a1i": 4005,
  "\u771f\u6c14": 4006,
  "\u2581V\u1ec7": 4007,
  "\u51b7\u54fc": 4008,
  "\u4f38\u624b": 4009,
  "\u2581n\u00e3y": 4010,
  "\u4e0d\u51fa": 4011,
  "\u5bb6\u4e3b": 4012,
  "\u5c0f\u59d0": 4013,
  "\u795e\u5149": 4014,
  "\u2581li\u1ec1u": 4015,
  "\u4ed6\u5c31": 4016,
  "\u5979\u4eec": 4017,
  "\u2581H\u1ed3i": 4018,
  "\u2581kh\u00f3a": 4019,
  "\u5185\u7684": 4020,
  "\u867d\u8bf4": 4021,
  "\u2581Do": 4022,
  "\u2581v\u1ecdt": 4023,
  "\u2581nh\u00f3c": 4024,
  "\u65f6\u5149": 4025,
  "\u8bb8\u4e45": 4026,
  "\u552f\u4e00": 4027,
  "\u7741\u5f00": 4028,
  "\u8fc7\u7a0b": 4029,
  "\u2581tr\u0103ng": 4030,
  "\u2581m\u1eabu": 4031,
  "\u2581s\u00e9t": 4032,
  "\u4e86\u89e3": 4033,
  "\u2581m\u00e1t": 4034,
  "\u2581Chuy\u1ec7n": 4035,
  "\u2581\u4e09": 4036,
  "\u8fd9\u7b49": 4037,
  "\u2581C\u1ed1c": 4038,
  "\u2581Lai": 4039,
  "\u4e9b\u4ec0\u4e48": 4040,
  "Ti\u00ean": 4041,
  "\u2581\u597d": 4042,
  "\u9662\u957f": 4043,
  "\u2581Gi\u1edd": 4044,
  "\u4e86\u4e00\u9053": 4045,
  "\u2581Gi\u1ed1ng": 4046,
  "\u5df2\u7136": 4047,
  "\u91cd\u91cd": 4048,
  "\u2581Ai": 4049,
  "\u2581khu\u1ea5t": 4050,
  "\u4e0d\u884c": 4051,
  "\u65b9\u9762": 4052,
  "\u2581H\u1ea7u": 4053,
  "\u2581L\u1ed9": 4054,
  "\u2581bi\u1ec7n": 4055,
  "\u2581ngh\u1ecbch": 4056,
  "\u2581V\u1eabn": 4057,
  "\u5b97\u5e08": 4058,
  "\u2581\u8fd9\u662f": 4059,
  "\u674e\u7476\u7476": 4060,
  "\u83ab\u540d": 4061,
  "\u2581Vi\u1ec7t": 4062,
  "\u2581S\u01b0\u01a1ng": 4063,
  "\u2581\u00f4": 4064,
  "\u6709\u6ca1\u6709": 4065,
  "\u2581thi\u00eau": 4066,
  "\u2581\u73b0\u5728": 4067,
  "!\u300d": 4068,
  "\u2581\u771f": 4069,
  "\u4e2a\u4eba": 4070,
  "\u2581\u0111\u00e8n": 4071,
  "\u4e00\u65f6": 4072,
  "\u2581Ph\u1ee5": 4073,
  "\u2581m\u1ecfi": 4074,
  "\u2581ph\u1ea1t": 4075,
  "V\u01b0\u01a1ng": 4076,
  "\u5c01\u5370": 4077,
  "\u8fd9\u65f6\u5019": 4078,
  "\u2581Sao": 4079,
  "\u6211\u662f": 4080,
  "\u2581B\u00e2y": 4081,
  "\u2581h\u1ea1t": 4082,
  "\u2581\u6d1b": 4083,
  "\u5e2e\u52a9": 4084,
  "\u2581\u0110\u1eb1ng": 4085,
  "\u72c2\u66b4": 4086,
  "\u9b54\u65cf": 4087,
  "\u2581tr\u00e1n": 4088,
  "\u60ca\u5929": 4089,
  "\u6b7b\u4ea1": 4090,
  "\u672c\u6e90": 4091,
  "\u79d8\u5bc6": 4092,
  "\u6240\u6709\u7684": 4093,
  "\u2581khi\u00eau": 4094,
  "\u2581Th\u01b0\u1eddng": 4095,
  "\u8db3\u4ee5": 4096,
  "\u2581n\u00e9t": 4097,
  "\u4e00\u770b": 4098,
  "\u6781\u5176": 4099,
  "\u6b64\u5904": 4100,
  "\u4fee\u70bc\u8005": 4101,
  "\u2581\u0111i\u1ec7p": 4102,
  "\u00f5i": 4103,
  "\u2581ph\u00fac": 4104,
  "\u901a\u5d16": 4105,
  "\u2581Ngo\u00e0i": 4106,
  "\u2581b\u1ed1c": 4107,
  "\u2581x\u00edch": 4108,
  "\u8840\u8109": 4109,
  "\u6570\u91cf": 4110,
  "\u2581Ng\u00e2n": 4111,
  "\u6211\u4f1a": 4112,
  "\u968f\u65f6": 4113,
  "\u2581N\u00f3": 4114,
  "\u2581bu\u1ed5i": 4115,
  "\u8042\u79bb\u7684": 4116,
  "\u1eb9o": 4117,
  "\u4f55\u51b5": 4118,
  "\u57ce\u4e3b": 4119,
  "\u2581bi": 4120,
  "\u2581h\u1ed9p": 4121,
  "\u2581g\u00e1nh": 4122,
  "\u4e00\u5ea7": 4123,
  "\u8eab\u8eaf": 4124,
  "\u5176\u4ed6\u4eba": 4125,
  "\u2581c\u1ed9t": 4126,
  "\u2581Th\u1eadm": 4127,
  "\u58f0\u8bf4\u9053": 4128,
  "\u2581Kh\u1edfi": 4129,
  "\u4f17\u591a": 4130,
  "\u8ba9\u5f97": 4131,
  "\u7684\u8eab\u4efd": 4132,
  "\u2581ch\u00e1n": 4133,
  "\u2581m\u00f4": 4134,
  "\u5929\u541b": 4135,
  "\u51f0\u5929": 4136,
  "\u5929\u9b54": 4137,
  "\u7684\u60c5\u51b5": 4138,
  "\u2581nghi\u00ean": 4139,
  "\u7ed9\u4e86": 4140,
  "\u8054\u7cfb": 4141,
  "\u4e4b\u95f4\u7684": 4142,
  "\u2581Th\u1ed5": 4143,
  "\u2581ph\u1ec7": 4144,
  "\u2581H\u00e0o": 4145,
  "\u987e\u9752\u5c71": 4146,
  "\u51b2\u51fb": 4147,
  "\u6211\u4e5f": 4148,
  "\u2581s\u0103n": 4149,
  "\u65cf\u957f": 4150,
  "\u8fd9\u4e9b\u4eba": 4151,
  "\u2581s\u1ed1t": 4152,
  "\u968f\u5373": 4153,
  "\u2581Nh\u1eadt": 4154,
  "\u2581\u708e": 4155,
  "\u2581nh\u1ec9": 4156,
  "\u9aa4\u7136": 4157,
  "\u71c3\u70e7": 4158,
  "\u2581\u0110\u00e1m": 4159,
  "\u81ea\u7136\u662f": 4160,
  "\u2581\u4ed6\u7684": 4161,
  "\u2581h\u00e0": 4162,
  "\u2581t\u1ef1u": 4163,
  "\u2581kh\u00edch": 4164,
  "\u7406\u89e3": 4165,
  "\u770b\u5f97": 4166,
  "\u2581\u8fd9\u4e00": 4167,
  "\u51fa\u73b0\u4e86": 4168,
  "\u2581\u8fd9\u4e9b": 4169,
  "\u51e0\u5341": 4170,
  "\u8eab\u524d": 4171,
  "\u2581\u6d85\u69c3": 4172,
  "\u2581\u7476\u6c60": 4173,
  "\u2581l\u1ed1i": 4174,
  "\u80a9\u8180": 4175,
  "\u98ce\u96ea": 4176,
  "\u2581Gi\u1ea3i": 4177,
  "\u2581\u0111\u1ea1p": 4178,
  "\u5316\u6210": 4179,
  "\u2581ngoan": 4180,
  "\u6e05\u6670": 4181,
  "\u7ec8\u7a76": 4182,
  "\u5df2\u7ecf\u662f": 4183,
  "\u5927\u6218": 4184,
  "\u7b49\u5f85": 4185,
  "\u751f\u751f": 4186,
  "\u89c2\u5bdf": 4187,
  "\u5de8\u5927": 4188,
  "\u2581\u7476\u7476": 4189,
  "\u5f3a\u884c": 4190,
  "\u5c31\u88ab": 4191,
  "\u7247\u523b\u540e": 4192,
  "\u2581Quy": 4193,
  "\u2581ngu\u1ed3n": 4194,
  "\u2581c\u1eadn": 4195,
  "\u89c1\u4ed6": 4196,
  "\u9762\u4e0a": 4197,
  "\u54b1\u4eec": 4198,
  "\u8eab\u65c1": 4199,
  "\u4eac\u57ce": 4200,
  "\u7684\u7b11\u5bb9": 4201,
  "?\u201c": 4202,
  "\u2581\u7075": 4203,
  "\u2581\u0111\u1ee3t": 4204,
  "\u5341\u51e0": 4205,
  "\u5468\u8eab": 4206,
  "\u627f\u53d7": 4207,
  "\u538b\u5236": 4208,
  "\u2581ti\u1ec7m": 4209,
  "\u5728\u5929": 4210,
  "\u63a0\u8fc7": 4211,
  "\u800c\u5f00": 4212,
  "\u2581lau": 4213,
  "\u6700\u4e3a": 4214,
  "\u4e7e\u5764": 4215,
  "\u9ed8\u9ed8": 4216,
  "\u2581C\u1ed1t": 4217,
  "\u2581Ph\u1ea3i": 4218,
  "\u52a8\u4e86": 4219,
  "\u6001\u5ea6": 4220,
  "\u2581t\u00e1ch": 4221,
  "\u2581\u2018": 4222,
  "\u7075\u5668": 4223,
  "\u95e8\u53e3": 4224,
  "\u7684\u6a21\u6837": 4225,
  "T\u1ed5": 4226,
  "\u2581\u5f53": 4227,
  "\u2581lay": 4228,
  "\u4fdd\u62a4": 4229,
  "\u5e76\u672a": 4230,
  "\u600e\u4e48\u4f1a": 4231,
  "\u5c31\u6709": 4232,
  "\u65e0\u7a77": 4233,
  "\u2581b\u00fat": 4234,
  "\u534a\u4e2a": 4235,
  "\u53f9\u606f": 4236,
  "\u5473\u9053": 4237,
  "\u2581k\u1ec7": 4238,
  "\u53e3\u4e2d": 4239,
  "\u79bb\u5f00\u4e86": 4240,
  "\u95e8\u7684": 4241,
  "C\u00e1i": 4242,
  "\u2581h\u00ec": 4243,
  "\u4e0a\u53e4": 4244,
  "\u2581\u0110\u1ed9t": 4245,
  "\u9ed1\u8272\u7684": 4246,
  "\u2581khi\u1ec3n": 4247,
  "\u602a\u7269": 4248,
  "\u2581h\u01b0ng": 4249,
  "\u2581T\u01b0\u1eddng": 4250,
  "\u4f20\u51fa": 4251,
  "\u514b\u83b1": 4252,
  "\u514b\u83b1\u6069": 4253,
  "\u2581m\u00e0ng": 4254,
  "\u4e0d\u8fdc\u5904": 4255,
  "lein": 4256,
  "\u8bb0\u5fc6": 4257,
  "\u9760\u8fd1": 4258,
  "\u2581l\u00e0nh": 4259,
  "L\u00e0": 4260,
  "\u5934\u9876": 4261,
  "\u2581Qu\u00fd": 4262,
  "\u2581qu\u1eadn": 4263,
  "\u767d\u8272": 4264,
  "\u7738\u5b50": 4265,
  "\u2581ch\u1ed1i": 4266,
  "\u2581T\u01b0\u1ee3ng": 4267,
  "\u5174\u8da3": 4268,
  "\u2581\u9646\u957f\u751f": 4269,
  "\u5a01\u80c1": 4270,
  "\u2581Vinh": 4271,
  "\u2581ch\u00e0o": 4272,
  "\u2581Di\u00eam": 4273,
  "\u5bfb\u5e38": 4274,
  "\u7cbe\u795e\u529b": 4275,
  "\u597d\u5904": 4276,
  "\u7acb\u5373": 4277,
  "\u7eaf\u9633": 4278,
  "V\u0169": 4279,
  "\u5b89\u5168": 4280,
  "\u9886\u609f": 4281,
  "\u2581R\u1ea5t": 4282,
  "\u2581Chi\u00eau": 4283,
  "\u2581hi\u1ebfp": 4284,
  "\u2581c\u1ea1n": 4285,
  "\u89c6\u7740": 4286,
  "\u2581lo\u1ea1t": 4287,
  "\u2581\u6b27\u9633": 4288,
  "Ng\u01b0\u1eddi": 4289,
  "\u53cd\u6b63": 4290,
  "\u2581say": 4291,
  "\u540e\u671f": 4292,
  "\u2581Klein": 4293,
  "\u8ba9\u4ed6\u4eec": 4294,
  "\u53cc\u76ee": 4295,
  "\u5931\u8d25": 4296,
  "\u4e07\u5e74": 4297,
  "\u6211\u8981": 4298,
  "\u2581hang": 4299,
  "\u65e0\u4eba": 4300,
  "\u6740\u673a": 4301,
  "\u524d\u9762": 4302,
  "\u6740\u6b7b": 4303,
  "\u50a8\u7269": 4304,
  "\u731b\u5730": 4305,
  "\u7981\u5236": 4306,
  "Ni\u1ebft": 4307,
  "\u6311\u6218": 4308,
  "\u67d0\u79cd": 4309,
  "Sao": 4310,
  "\u2581\u770b\u5230": 4311,
  "\u2581tr\u01b0\u1edbng": 4312,
  "\u5b89\u6392": 4313,
  "\u2581\u01af": 4314,
  "\u4f5c\u7528": 4315,
  "\u8bf4\u660e": 4316,
  "\u542c\u5f97": 4317,
  "\u5b83\u7684": 4318,
  "\u6211\u4e0d": 4319,
  "\u7075\u5b9d": 4320,
  "\u8138\u5e9e": 4321,
  "\u5883\u7684": 4322,
  "\u624d\u4f1a": 4323,
  "\u76f8\u6bd4": 4324,
  "\u2581l\u00e2m": 4325,
  "\u6050\u60e7": 4326,
  "\u968f\u610f": 4327,
  "\u2581Tr\u01b0": 4328,
  "\u2581r\u1eeda": 4329,
  "\u63d0\u524d": 4330,
  "\u2581v\u1ee3": 4331,
  "\u2581bia": 4332,
  "\u2581v\u00ed": 4333,
  "\u5fc5\u5b9a": 4334,
  "\u2581gi\u1ecdt": 4335,
  "\u9b54\u5b97": 4336,
  "\u2581d\u00e3": 4337,
  "\u2581T\u01b0\u1edbc": 4338,
  "\u53c8\u6709": 4339,
  "\u7684\u9ed1": 4340,
  "\u82e6\u7b11": 4341,
  "\u2581th\u1ecfa": 4342,
  "\u518d\u8bf4": 4343,
  "\u6d88\u8017": 4344,
  "C\u1eedu": 4345,
  "\u2581x\u00e2m": 4346,
  "\u6ca1\u6709\u4ec0\u4e48": 4347,
  "\u2581ng\u1ea1i": 4348,
  "\u5b8c\u6210": 4349,
  "\u2581c\u1ed5ng": 4350,
  "\u5c0f\u8c82": 4351,
  "\u731c\u6d4b": 4352,
  "\u63a5\u53d7": 4353,
  "\u5149\u660e": 4354,
  "\u5c11\u7237": 4355,
  "\u8981\u6c42": 4356,
  "\u8f7b\u677e": 4357,
  "\u5e94\u6b22\u6b22": 4358,
  "\u2581tri\u1ec7t": 4359,
  "\u624b\u81c2": 4360,
  "\u2581C\u1ea9u": 4361,
  "\u2581c\u00e1t": 4362,
  "\u4e07\u91cc": 4363,
  "\u5927\u4e16\u754c": 4364,
  "\u2581M\u1eabu": 4365,
  "\u2581\u65e2\u7136": 4366,
  "\u7684\u4fee\u58eb": 4367,
  "\u2581\u0110\u00e0n": 4368,
  "\u2581l\u1ecfng": 4369,
  "\u4eac\u90fd": 4370,
  "\u7b49\u7740": 4371,
  "\u8fd9\u4e2a\u65f6\u5019": 4372,
  "\u5e72\u51c0": 4373,
  "\u771f\u5b9e": 4374,
  "\u2581\u5c0f\u795e\u9f99": 4375,
  "\u2581\u0110i\u00eau": 4376,
  "\u843d\u5728\u4e86": 4377,
  "\u2581g\u1ea7y": 4378,
  "\u2581n\u00e1o": 4379,
  "\u4e1c\u65b9": 4380,
  "\u4e00\u5f20": 4381,
  "\u2581\u82cf\u5b50\u5b89": 4382,
  "\u2581tho\u1ea3i": 4383,
  "\u4f60\u8981": 4384,
  "\u8bf4\u7740": 4385,
  "\u4eba\u7269": 4386,
  "\u8776\u8863": 4387,
  "\u9732\u51fa\u4e86\u4e00\u4e1d": 4388,
  "\u2581k\u00edn": 4389,
  "C\u00e1c": 4390,
  "\u2581m\u00e9t": 4391,
  "\u4e00\u53d8": 4392,
  "\u8eab\u4e3a": 4393,
  "\u2581x\u01b0ng": 4394,
  "\u1ed3m": 4395,
  "\u611f\u53d7\u5230": 4396,
  "\u6155\u96c5\u54f2": 4397,
  "\u90a3\u4e48\u591a": 4398,
  "\u2581K\u1ebft": 4399,
  "\u2581phen": 4400,
  "\u2581ch\u1ed3ng": 4401,
  "\u56de\u4e8b": 4402,
  "\u767d\u9ca4": 4403,
  "\u2581\u77f3\u8f69": 4404,
  "\u5b9e\u9645": 4405,
  "\u2581\u53ea\u662f": 4406,
  "\u77e5\u9053\u4e86": 4407,
  "\u77f3\u5934": 4408,
  "\u5c5e\u4e8e": 4409,
  "\u2581b\u1eafc": 4410,
  "\u2581m\u1ecfng": 4411,
  "\u2581ph\u00e1n": 4412,
  "V\u00e2n": 4413,
  "\u2581Trang": 4414,
  "th": 4415,
  "\u2581b\u1ed3i": 4416,
  "\u5dee\u4e0d\u591a": 4417,
  "\u4e00\u5934": 4418,
  "\u2581Ha": 4419,
  "\u2581ch\u1ed1t": 4420,
  "\u2581M\u1eabn": 4421,
  "\u2581Th\u00f4n": 4422,
  "\u2581nh\u00e3n": 4423,
  "\u2581tu\u1ea7n": 4424,
  "\u6563\u4fee": 4425,
  "\u4e4b\u4e2d\u7684": 4426,
  "\u2581Tr\u01b0\u1edfng": 4427,
  "\u843d\u843d": 4428,
  "\u2581g\u1eedi": 4429,
  "\u2581\u0110\u00f4i": 4430,
  "\u6307\u7740": 4431,
  "\u5728\u5176": 4432,
  "\u601d\u7d22": 4433,
  "\u606d\u656c": 4434,
  "\u76ee\u7684": 4435,
  "\u6ca1\u6709\u60f3\u5230": 4436,
  "\u3002............": 4437,
  "\u540e\u9000": 4438,
  "\u5929\u795e": 4439,
  "\u4e86\u4e00\u53e5": 4440,
  "\u4e0b\u610f\u8bc6": 4441,
  "\u5e1d\u4e00": 4442,
  "\u5145\u6ee1\u4e86": 4443,
  "\u2581\u706b": 4444,
  "\u6d88\u6563": 4445,
  "\u4e0b\u4e00\u523b": 4446,
  "S\u01b0": 4447,
  "\u5723\u5730": 4448,
  "\u2581kh\u1ea9u": 4449,
  "\u5728\u5979": 4450,
  "\u2581v\u00e3": 4451,
  "\u2581Nha": 4452,
  "\u2581nh\u00f3m": 4453,
  "\u2581t\u1ea3": 4454,
  "\u7684\u5c71": 4455,
  "Gi": 4456,
  "\u4e86\u5417": 4457,
  "\u5b9e\u5728\u662f": 4458,
  "\u2581x\u1ea3o": 4459,
  "\u8d70\u51fa": 4460,
  "\u9634\u5080": 4461,
  "\u2581\u5996": 4462,
  "\u6781\u81f4": 4463,
  "\u4e5f\u5f88": 4464,
  "\u2581xua": 4465,
  "\u00eca": 4466,
  "\u5927\u54e5": 4467,
  "\u62b1\u7740": 4468,
  "\u5728\u4ed6\u7684": 4469,
  "\u4e00\u5904": 4470,
  "\u7136\u7684": 4471,
  "\u2581Ph\u00eda": 4472,
  "\u5c06\u8fd9": 4473,
  "\u9752\u9633": 4474,
  "\u2581\u58a8\u753b": 4475,
  "\u72f0\u72de": 4476,
  "\u7528\u4e86": 4477,
  "\u773c\u91cc": 4478,
  "\u95ea\u7535": 4479,
  "\u7a7a\u6c14": 4480,
  "\u8fdf\u7591": 4481,
  "\u62a4\u536b": 4482,
  "\u2581V\u1ed1n": 4483,
  "\u5316\u9f99": 4484,
  "\u518d\u4e5f": 4485,
  "\u773c\u5e95": 4486,
  "\u5e08\u6625": 4487,
  "\u2581d\u1ed3n": 4488,
  "\u563f\u563f": 4489,
  "\u2581d\u1eaft": 4490,
  "\u2581Th\u1ea3o": 4491,
  "La": 4492,
  "\u6108\u53d1": 4493,
  "Th\u00e1nh": 4494,
  "\u7b49\u5230": 4495,
  "\u9677\u5165": 4496,
  "\u2581t\u1ec9": 4497,
  "\u91d1\u732a": 4498,
  "\u5730\u8bf4\u9053": 4499,
  "\u6797\u52a8\u7684": 4500,
  "\u2581r\u00e8n": 4501,
  "\u2581ng\u1ee5c": 4502,
  "\u2581ch\u00e2m": 4503,
  "oi": 4504,
  "\u4f30\u8ba1": 4505,
  "\u7b11\u4e86\u8d77\u6765": 4506,
  "\u6bd4\u5982": 4507,
  "\u2581T\u00f4i": 4508,
  "\u524d\u6765": 4509,
  "\u4e00\u62f3": 4510,
  "\u4e3b\u52a8": 4511,
  "\u4f60\u8bf4": 4512,
  "\u201d,": 4513,
  "\u2581M\u1ea1ch": 4514,
  "\u5929\u5bab": 4515,
  "\u6ca1\u4e86": 4516,
  "\u2581h\u1ed1i": 4517,
  "\u4e0a\u54c1": 4518,
  "\u8574\u542b": 4519,
  "\u1ee5a": 4520,
  "\u5feb\u8981": 4521,
  "\u9644\u8fd1": 4522,
  "\u2581lang": 4523,
  "\u2581ch\u01b0\u01a1ng": 4524,
  "\u547c\u5578": 4525,
  "\u7d27\u63a5\u7740": 4526,
  "\u5723\u7687": 4527,
  "L\u1ee5c": 4528,
  "\u751f\u6d3b": 4529,
  "\u80fd\u4e0d\u80fd": 4530,
  "\u2581s\u00f4i": 4531,
  "\u8ba1\u5212": 4532,
  "\u2581\u4f60\u4eec": 4533,
  "\u2581\u6211\u4eec": 4534,
  "\u2581\u0111i\u1ec3n": 4535,
  "\u538b\u529b": 4536,
  "\u63a5\u89e6": 4537,
  "\u654c\u4eba": 4538,
  "Ch\u1eb3ng": 4539,
  "\u4f3c\u7684": 4540,
  "\u53f3\u624b": 4541,
  "\u770b\u4e0a\u53bb": 4542,
  "\u6750\u6599": 4543,
  "\u2581ki\u1ec3u": 4544,
  "\u540e\u7684": 4545,
  "\u2581ch\u01b0": 4546,
  "\u7f8e\u7684": 4547,
  "\u957f\u5251": 4548,
  "\u2581\u0111\u1ea3": 4549,
  "\u8fd8\u672a": 4550,
  "\u76f4\u63a5\u662f": 4551,
  "\u2581d\u1eadp": 4552,
  "\u539f\u5730": 4553,
  "\u2581\u79e6": 4554,
  "\u57fa\u672c": 4555,
  "\u5b50\u5f1f": 4556,
  "\u2581nhan": 4557,
  "\".": 4558,
  "\u4e4b\u6240\u4ee5": 4559,
  "\u5e9e\u5927\u7684": 4560,
  "\u7528\u7684": 4561,
  "\u2581t\u00e0u": 4562,
  "\u53d8\u6210\u4e86": 4563,
  "\u6bd4\u8d77": 4564,
  "\u5927\u6bbf": 4565,
  "\u2581\u0110i": 4566,
  "\u600e\u4e48\u6837": 4567,
  "\u2581H\u1ee3p": 4568,
  "\u2581qu\u1ea7y": 4569,
  "\u5e08\u53d4": 4570,
  "\u8bf8\u4f4d": 4571,
  "\u9707\u52a8": 4572,
  "\u5ba2\u6c14": 4573,
  "\u2581n\u1ea1n": 4574,
  "\u8f6c\u8fc7": 4575,
  "\u2581\u6155\u5bb9": 4576,
  "\u2581\u9646\u98d8": 4577,
  "\u2581kh\u1ea9n": 4578,
  "\u638c\u67dc": 4579,
  "\u2581Ng\u1ef1": 4580,
  "\u4e0d\u592a": 4581,
  "\u671b\u53bb": 4582,
  "\u2581hu": 4583,
  "\u5904\u7406": 4584,
  "\u6539\u53d8": 4585,
  "\u2581\u1eadp": 4586,
  "\u2581lam": 4587,
  "\u5f20\u590f": 4588,
  "\u6765\u5230\u4e86": 4589,
  "\u4ea7\u751f": 4590,
  "\u2581L\u01b0": 4591,
  "\u91d1\u9f99": 4592,
  "\u4e0d\u591f": 4593,
  "\u5fc3\u60c5": 4594,
  "\u6d1e\u5929": 4595,
  "\u2581\u5982\u4eca": 4596,
  "\u2581\u0110\u1ea7u": 4597,
  "\u575a\u5b9a": 4598,
  "\u5e2d\u5377": 4599,
  "\u5f97\u4e86": 4600,
  "\u636e\u8bf4": 4601,
  "\u897f\u9675": 4602,
  "\u4f1a\u88ab": 4603,
  "\u7686\u662f": 4604,
  "\u2581\u8427\u8bed": 4605,
  "\u2581l\u1ec7ch": 4606,
  "\u575a\u6301": 4607,
  "\u5251\u6c14": 4608,
  "\u638c\u63e1": 4609,
  "\u7ea7\u522b": 4610,
  "\u5929\u660e": 4611,
  "\u95e8\u5916": 4612,
  "\u4e09\u5927": 4613,
  "\u2581v\u1eaby": 4614,
  "\u5f53\u4e2d": 4615,
  "\u5f88\u5927": 4616,
  "\u2581l\u01b0\u1eddi": 4617,
  "\u6ee1\u8138": 4618,
  "\u7f6e\u4fe1": 4619,
  "\u2581B\u00e1n": 4620,
  "\u2581m\u00f9a": 4621,
  "\u2581b\u00e1nh": 4622,
  "\u674e\u7384": 4623,
  "\u2581ch\u1ecb": 4624,
  "\u7237\u7237": 4625,
  "\u2581m\u00f3ng": 4626,
  "\u2581thai": 4627,
  "\u6709\u591a": 4628,
  "\u8d1d\u8fe6": 4629,
  "\u4e00\u53e3\u6c14": 4630,
  "\u6218\u4e89": 4631,
  "\u5947\u5f02": 4632,
  "\u8003\u8651": 4633,
  "\u4ec0\u4e48\u65f6\u5019": 4634,
  "\u653e\u5f03": 4635,
  "\u2581l\u1ebb": 4636,
  "??": 4637,
  "\u79d8\u672f": 4638,
  "\u2581b\u1ef1c": 4639,
  "\u2581tr\u1ed9m": 4640,
  "\u548c\u5c1a": 4641,
  "\u2581Ti\u1ebft": 4642,
  "\u2581l\u00e3ng": 4643,
  "\u2581L\u00e3nh": 4644,
  "\u5507\u89d2": 4645,
  "\u5929\u4e66": 4646,
  "\u5c42\u6b21": 4647,
  "\u770b\u4f3c": 4648,
  "\u2581\u0111\u1edd": 4649,
  "\u4e00\u65f6\u95f4": 4650,
  "\u600e\u4e48\u529e": 4651,
  "\u2581gi\u00e2y": 4652,
  "\u62cd\u5356": 4653,
  "\u2581l\u0103n": 4654,
  "\u5e1d\u56fd": 4655,
  "\u6447\u6447\u5934": 4656,
  "\u524d\u5f80": 4657,
  "\u7559\u5728": 4658,
  "\u2581D\u1ecb": 4659,
  "\u2581Ph\u00e1i": 4660,
  "\u53ea\u5269": 4661,
  "\u2581ngon": 4662,
  "\u4eba\u95f4": 4663,
  "\u751f\u7075": 4664,
  "Linh": 4665,
  "\u2581tr\u01b0\u01a1ng": 4666,
  "\u6446\u624b": 4667,
  "\u8fd9\u5ea7": 4668,
  "\u2581la": 4669,
  "\u2581Th\u1ec3": 4670,
  "\u2581v\u1ea3i": 4671,
  "\u5c31\u53ef\u4ee5": 4672,
  "\u2581n\u1ed1i": 4673,
  "\u8def\u4e0a": 4674,
  "\u5149\u8f89": 4675,
  "\u65e0\u6bd4\u7684": 4676,
  "\u662f\u8981": 4677,
  "\u8fd9\u4e9b\u5e74": 4678,
  "\u2581M\u1ed9ng": 4679,
  "\u5404\u81ea": 4680,
  "\u660e\u767d\u4e86": 4681,
  "\u2581T\u1ed1": 4682,
  "\u2581gi\u1ecfi": 4683,
  "\u62d2\u7edd": 4684,
  "\u6536\u56de": 4685,
  "\u7b11\u610f": 4686,
  "\u5411\u524d": 4687,
  "\u5bc6\u8c0d": 4688,
  "\u2581\u5927\u8352": 4689,
  "\u2581d\u00ednh": 4690,
  "\u2581nghi\u1ec1n": 4691,
  "\u6bc1\u706d": 4692,
  "\u2581\u0111\u00f3a": 4693,
  "\u8fd9\u4e2a\u4e16\u754c": 4694,
  "\u4e00\u767e": 4695,
  "\u5f00\u542f": 4696,
  "\u786e\u8ba4": 4697,
  "\u6293\u4f4f": 4698,
  "\u2581\u5c0f\u708e": 4699,
  "\u2581\u65e0\u5c18": 4700,
  "\u65f6\u523b": 4701,
  "\u987a\u7740": 4702,
  "\u2581t\u00e2y": 4703,
  "\u5341\u4e8c": 4704,
  "\u51fa\u4e86\u4e00": 4705,
  "\u2581N\u01a1i": 4706,
  "\u53ef\u89c1": 4707,
  "\u653e\u4e0b": 4708,
  "\u2581L\u1ed9c": 4709,
  "\u2581T\u00e0ng": 4710,
  "\u2581l\u01b0\u1ee3n": 4711,
  "\u8fd9\u5c31\u662f": 4712,
  "\u6bbf\u4e3b": 4713,
  "\u8270\u96be": 4714,
  "\u2581c\u1eedu": 4715,
  "\u2581k\u00ecm": 4716,
  "\u2581B\u00e0o": 4717,
  "\u2581vi\u1ec5n": 4718,
  "\u4f46\u5374": 4719,
  "\u75d5\u8ff9": 4720,
  "\u2581nh\u1edf": 4721,
  "\u2581\u53ef\u662f": 4722,
  "Y\u00eau": 4723,
  "\u2581kho\u00e1t": 4724,
  "\u50ac\u52a8": 4725,
  "\u76ee\u6807": 4726,
  "\u2581sung": 4727,
  "\u2581\u4f17\u4eba": 4728,
  "\u2581\u53f6\u5b97": 4729,
  "\u5927\u591a": 4730,
  "\u56e0\u4e3a\u4ed6": 4731,
  "\u662f\u4e00\u4e2a": 4732,
  "\u1ec7n": 4733,
  "\u4e00\u573a": 4734,
  "\u51e0\u5929": 4735,
  "\u52a8\u9759": 4736,
  "\u6218\u529b": 4737,
  "\u2581huy\u1ec7t": 4738,
  "\u6d3b\u7740": 4739,
  "\u4e39\u5668": 4740,
  "\u7f13\u7f13\u7684": 4741,
  "\u5373\u5c06": 4742,
  "\u81ea\u8bed": 4743,
  "\u2581\u84dd": 4744,
  "\u5728\u5730": 4745,
  "\u2581\u4ece": 4746,
  "\u2581ng\u1eef": 4747,
  "\u2581th\u01b0\u1edbc": 4748,
  "\u4f20\u8bf4": 4749,
  "\u6210\u957f": 4750,
  "\u9668\u843d": 4751,
  "\u2581v\u0129nh": 4752,
  "\u2581xu\u00e2n": 4753,
  "\u2581tr\u00eau": 4754,
  "\u1ee5t": 4755,
  "\u7ecf\u8109": 4756,
  "\u2581\u7389": 4757,
  "\u914d\u5408": 4758,
  "\u6ca1\u6709\u4e1d\u6beb": 4759,
  "\u54e5\u54e5": 4760,
  "\u7f57\u5929\u5b97": 4761,
  "\u672c\u547d": 4762,
  "\u6b64\u6b21": 4763,
  "\u2581ch\u1eadt": 4764,
  "\u2581t\u1ed1ng": 4765,
  "\u4e00\u679a": 4766,
  "\u5929\u5e1d": 4767,
  "\u5e74\u7eaa": 4768,
  "\u5f97\u5230\u4e86": 4769,
  "\u2581V\u1edbi": 4770,
  "\u2581su\u1ea5t": 4771,
  "\u2581h\u1ea1nh": 4772,
  "\u4e00\u9707": 4773,
  "\u8863\u670d": 4774,
  "\u4f1a\u4e0d\u4f1a": 4775,
  "\u4e09\u4f4d": 4776,
  "\u5c0f\u708e": 4777,
  "\u70bc\u5316": 4778,
  "\u2581\u5b81\u7f3a": 4779,
  "\u3002\u300d\u300c": 4780,
  "\u7684\u673a\u4f1a": 4781,
  "\u7684\u795e\u60c5": 4782,
  "\u7684\u90a3\u4e9b": 4783,
  "\u2581ng\u00e2n": 4784,
  "\u2581thi\u1ebfp": 4785,
  "\u2581\u6c88": 4786,
  "\u4eba\u7fa4": 4787,
  "\u6676\u77f3": 4788,
  "\u4e58\u98ce": 4789,
  "\u7075\u6839": 4790,
  "\u5206\u8eab": 4791,
  "\u5438\u5f15": 4792,
  "\u6d53\u90c1": 4793,
  "\u7384\u5883": 4794,
  "\u98de\u5251": 4795,
  "Li\u1ec5u": 4796,
  "\u4e0d\u5df2": 4797,
  "\u4e5f\u5728": 4798,
  "\u2581v\u1ea3": 4799,
  "\u2581c\u1ea3i": 4800,
  "\u5a18\u5a18": 4801,
  "\u91d1\u8272\u7684": 4802,
  "\u5f97\u7f6a": 4803,
  "\u9707\u5929": 4804,
  "\u4f24\u52bf": 4805,
  "\u5996\u65cf": 4806,
  "\u2581\u0110\u1ed9c": 4807,
  "\u2581\u0111eo": 4808,
  "\u4fdd\u6301": 4809,
  "\u2581v\u1ecf": 4810,
  "\u82e5\u4e0d\u662f": 4811,
  "\u51b7\u6f20": 4812,
  "\u2581Ng\u00e0y": 4813,
  "\u53cc\u65b9": 4814,
  "\u2581Khu": 4815,
  "\u2581leo": 4816,
  "\u2581gi\u1ea5c": 4817,
  "\u2581khuy\u00ean": 4818,
  "\u62f1\u624b": 4819,
  "\u529f\u592b": 4820,
  "\u2581b\u00e3i": 4821,
  "\u2581ki\u1ec7t": 4822,
  "\u8fd9\u4ef6\u4e8b": 4823,
  "\u8d44\u6e90": 4824,
  "\u2581Th\u1ecbnh": 4825,
  "\u2581khuy\u1ebft": 4826,
  "\u624b\u4e0b": 4827,
  "\u72fc\u72c8": 4828,
  "\u2581\u1edbt": 4829,
  "\u2581Tu\u1ea5n": 4830,
  "\u7684\u6c14": 4831,
  "\u2581\u0110inh": 4832,
  "\u51e0\u4eba": 4833,
  "\u2581To\u00e0n": 4834,
  "\u2581ph\u1ecfng": 4835,
  "\u63a5\u8fc7": 4836,
  "\u9752\u8272": 4837,
  "\u2581th\u1ecd": 4838,
  "\u95ea\u8fc7\u4e00\u4e1d": 4839,
  "\u4e00\u53e5": 4840,
  "\u6ca1\u4e8b": 4841,
  "\u8bdd\u97f3": 4842,
  "\u9053\u5b97": 4843,
  "\u56de\u8fc7": 4844,
  "\u6765\u5f97": 4845,
  "\u7ea7\u7684": 4846,
  "\u2581m\u1ecdc": 4847,
  "\u4e0d\u65f6": 4848,
  "\u2581\u5218": 4849,
  "\u4e24\u540d": 4850,
  "\u4fe1\u606f": 4851,
  "\u624b\u4e00": 4852,
  "\u01b0\u1eddn": 4853,
  "\u65e0\u5c3d\u7684": 4854,
  "\u6211\u60f3": 4855,
  "\u2581Mu\u1ed1n": 4856,
  "\u4ece\u672a": 4857,
  "\u5e08\u59d0": 4858,
  "\u80cc\u5f71": 4859,
  "\u8f69\u8f95": 4860,
  "\u1eb3m": 4861,
  "\u4e5f\u90fd": 4862,
  "\u591a\u8c22": 4863,
  "\u70bc\u5668": 4864,
  "\u8427\u8bed": 4865,
  "\u2581\u592a\u521d": 4866,
  "\u70bc\u4e39\u5e08": 4867,
  "\u7684\u610f\u601d": 4868,
  "\u4e00\u526f": 4869,
  "\u7b26\u5e08": 4870,
  "\u2581Ngh\u00ea": 4871,
  "\u2581x\u1ee9ng": 4872,
  "\u2581tr\u00e1ng": 4873,
  "\u4e5d\u5929": 4874,
  "\u5c0f\u795e\u9f99": 4875,
  "\u968f\u4fbf": 4876,
  "C\u00f2n": 4877,
  "\u2581d\u1ed7": 4878,
  "\u9690\u7ea6": 4879,
  "\u2581D\u1ef1c": 4880,
  "\u6740\u4eba": 4881,
  "\u6563\u53d1\u7740": 4882,
  "\u2581t\u1eaft": 4883,
  "\u2581th\u1eb3m": 4884,
  "\u51fa\u4e00\u4e1d": 4885,
  "\u2581nh\u1eafn": 4886,
  "\u2581gan": 4887,
  "\u5176\u4f59": 4888,
  "\u63d0\u9192": 4889,
  "\u8fd9\u573a": 4890,
  "\u59d0\u59d0": 4891,
  "\u6e05\u7af9": 4892,
  "\u2581b\u00e3o": 4893,
  "\u5374\u89c1": 4894,
  "\u8be2\u95ee": 4895,
  "\u2581t\u00fang": 4896,
  "Chuy\u1ec7n": 4897,
  "\u52c9\u5f3a": 4898,
  "\u4e07\u4ed9\u76df": 4899,
  "\u2581\u0111\u1ee5ng": 4900,
  "\u2581ch\u00fac": 4901,
  "\u4eba\u65cf": 4902,
  "\u505a\u7684": 4903,
  "\u2581\u4e00\u4e2a": 4904,
  "\u2581d\u1ee5c": 4905,
  "\u2581thang": 4906,
  "\u2581m\u1ecbt": 4907,
  "\u4e8b\u5b9e": 4908,
  "\u663e\u7136\u662f": 4909,
  "\u9053\u7684": 4910,
  "\u2581nh\u1ea5c": 4911,
  "\u5429\u5490": 4912,
  "\u6b63\u597d": 4913,
  "\u65e5\u5b50": 4914,
  "\u4f11\u606f": 4915,
  "\u7406\u4f1a": 4916,
  "\u2581g\u00e3y": 4917,
  "\u5c71\u7684": 4918,
  "\u5f88\u6e05\u695a": 4919,
  "\u5c06\u5979": 4920,
  "\u71d5\u9752": 4921,
  "\u2581ch\u00e0ng": 4922,
  "\u2581ki\u00eang": 4923,
  "\u2581L\u1ec7": 4924,
  "\u8fd8\u771f\u662f": 4925,
  "\u2581giam": 4926,
  "\u5929\u6d77": 4927,
  "\u8303\u56f4": 4928,
  "\u9ad8\u7684": 4929,
  "\u2581l\u1edd": 4930,
  "\u2581mi": 4931,
  "\u2581\u83ab": 4932,
  "\u672a\u6765": 4933,
  "\u2581Di": 4934,
  "\u2581l\u1ed3ng": 4935,
  "\u2581xo\u00e1y": 4936,
  "\u7684\u624b\u6bb5": 4937,
  "\u4e94\u5341": 4938,
  "\u56db\u4e2a": 4939,
  "\u9ad8\u5174": 4940,
  "\u2581\u6bd5\u7adf": 4941,
  "\u6559\u5b97": 4942,
  "\u675c\u6cfd": 4943,
  "\u6211\u7b49": 4944,
  "\u2581\u0111\u1ed3n": 4945,
  "\u5230\u5904": 4946,
  "\u8fd9\u4ef6\u4e8b\u60c5": 4947,
  "\u2581ch\u1ee7ng": 4948,
  "\u95ed\u5173": 4949,
  "\u2581\u4f51\u4f51": 4950,
  "\u7684\u671b\u7740": 4951,
  "\u2581\u9ec4": 4952,
  "\u81ea\u4fe1": 4953,
  "\u673a\u7f18": 4954,
  "\u9ed1\u8863": 4955,
  "\u5305\u88f9": 4956,
  "\u884c\u4e91": 4957,
  "\u9a91\u5175": 4958,
  "\u2581b\u1ec7ch": 4959,
  "\u4e00\u5b9a\u8981": 4960,
  "\u5bf9\u4e86": 4961,
  "\u2581\u8d64": 4962,
  "\u4eba\u5bb6": 4963,
  "\u661f\u6cfd": 4964,
  "\u770b\u51fa": 4965,
  "\u82cf\u79bb": 4966,
  "\u7edd\u4e16": 4967,
  "\u8db3\u8db3": 4968,
  "\u2581\u51cc": 4969,
  "\u4e00\u5757": 4970,
  "\u6700\u597d": 4971,
  "\u2581Chi\u1ebft": 4972,
  "\u6ca1\u4eba": 4973,
  "\u2581\u5f53\u7136": 4974,
  "C\u1ed1": 4975,
  "\u4ee3\u4ef7": 4976,
  "\u7684\u5f1f\u5b50": 4977,
  "\u2581l\u1eedng": 4978,
  "\u2581can": 4979,
  "\u2581Bang": 4980,
  "\u5e08\u5085": 4981,
  "\u0110\u1ea1o": 4982,
  "\u2581\u770b\u7740": 4983,
  "\u51f0\u5929\u8863": 4984,
  "\u2581m\u00e1y": 4985,
  "\u2581nh\u1eb7t": 4986,
  "\u638c\u95e8": 4987,
  "\u63a5\u8fd1": 4988,
  "\u8fd9\u9053": 4989,
  "\u8ffd\u6740": 4990,
  "\u4e24\u4e2a\u4eba": 4991,
  "\u4e86\u4e9b": 4992,
  "\u4e8c\u9636": 4993,
  "\u2581M\u1ed7i": 4994,
  "\u2581m\u00faa": 4995,
  "\u2581ho\u00e0nh": 4996,
  "\u501f\u52a9": 4997,
  "\u5e03\u7f6e": 4998,
  "\u4f60\u4e0d": 4999,
  "\u5730\u4f4d": 5000,
  "\u6084\u6084": 5001,
  "\u7aef\u6728": 5002,
  "\u7ad9\u8d77\u8eab": 5003,
  "\u666f\u671d": 5004,
  "\u8bf4\u51fa": 5005,
  "\u5143\u6c14": 5006,
  "\u51ed\u501f": 5007,
  "\u5e08\u5c0a": 5008,
  "\u6709\u5173": 5009,
  "\u8981\u77e5\u9053": 5010,
  "\u2581qu\u1ea5n": 5011,
  "\u2581kho\u00e1c": 5012,
  "\u5f97\u4e0a": 5013,
  "\u5fc3\u60f3": 5014,
  "\u2581\u0110\u1eebng": 5015,
  "\u6c38\u8fdc": 5016,
  "\u89c1\u72b6": 5017,
  "\u2581Kh\u00fac": 5018,
  "\u961f\u4f0d": 5019,
  "\u5728\u5730\u4e0a": 5020,
  "\u89c4\u77e9": 5021,
  "\u7eeb\u6e05\u7af9": 5022,
  "\u4e2d\u592e": 5023,
  "\u90a3\u5f20": 5024,
  "\u2581to\u00e1t": 5025,
  "\u5fc3\u601d": 5026,
  "\u5df2\u7ecf\u88ab": 5027,
  "\u4e0d\u5b9a": 5028,
  "\u2581C\u01b0\u1eddng": 5029,
  "\u4f60\u8fd9": 5030,
  "\u65b0\u7684": 5031,
  "\u8463\u9510": 5032,
  "\u2581B\u1ed3ng": 5033,
  "\u52fe\u8d77": 5034,
  "\u5f3a\u608d": 5035,
  "\u661f\u6d77": 5036,
  "\u8352\u539f": 5037,
  "\u2581L\u00e0m": 5038,
  "\u2581ng\u00f5": 5039,
  "\u6325\u624b": 5040,
  "\u8fd8\u4f1a": 5041,
  "\u7684\u4f4d\u7f6e": 5042,
  "\u62ac\u8d77\u5934": 5043,
  "\u4e00\u9897": 5044,
  "\u600e\u6837": 5045,
  "\u2581Cu": 5046,
  "\u4e00\u822c\u7684": 5047,
  "\u2581b\u1ea3ng": 5048,
  "\u2581th\u1ed1t": 5049,
  "\u5c0f\u6ee1": 5050,
  "\u7684\u8138\u8272": 5051,
  "\u9f99\u7fbd\u97f3": 5052,
  "\u4e0d\u5b89": 5053,
  "\u2581V\u00e3n": 5054,
  "\u2581l\u1ed9n": 5055,
  "\u671f\u5f85": 5056,
  "\u7528\u6765": 5057,
  "\u5c34\u5c2c": 5058,
  "\u65e0\u7591": 5059,
  "\u76ee\u524d": 5060,
  "\u8f88\u5b50": 5061,
  "\u2581r\u0169": 5062,
  "\u2581\u0111\u1ee5c": 5063,
  "\u664b\u738b\u6bbf\u4e0b": 5064,
  "\u2581V\u1ec1": 5065,
  "\u65cf\u4eba": 5066,
  "\u6709\u4e2a": 5067,
  "\u5bdf\u89c9\u5230": 5068,
  "\u6ee1\u610f": 5069,
  "\u7684\u4ed6": 5070,
  "\u7684\u773c\u775b": 5071,
  "\u610f\u4e49": 5072,
  "\u8b66\u60d5": 5073,
  "\u901a\u9053": 5074,
  "\u2581Ti\u1ebfp": 5075,
  "\u53e4\u602a": 5076,
  "\u80f8\u53e3": 5077,
  "\u4f60\u5c31": 5078,
  "\u540e\u65b9": 5079,
  "\u6bb5\u5251": 5080,
  "\u7279\u522b": 5081,
  "\u2581t\u1eb7c": 5082,
  "\u2581\u9f99\u7fbd\u97f3": 5083,
  "\u5c71\u5cf0": 5084,
  "\u2581T\u00e2n": 5085,
  "\u626b\u8fc7": 5086,
  "\u9686\u5e86": 5087,
  "\u2581\u5bb9\u4e91": 5088,
  "\u2581tr\u00e2n": 5089,
  "\u2581\u8fd9\u79cd": 5090,
  "\u2581Ho\u00e0nh": 5091,
  "\u5e2e\u5fd9": 5092,
  "\u2581kh\u00e0n": 5093,
  "\u6c47\u805a": 5094,
  "\u51fa\u6765\u4e86": 5095,
  "\u2581M\u1eadt": 5096,
  "\u4f60\u4e5f": 5097,
  "Ch\u00fang": 5098,
  "\u2581tho\u1ea1t": 5099,
  "\u4f4e\u6c89": 5100,
  "\u7814\u7a76": 5101,
  "\u2581tr\u00f3i": 5102,
  "\u25812": 5103,
  "\u5c06\u4f1a": 5104,
  "\u626d\u66f2": 5105,
  "\u7684\u4fee\u4e3a": 5106,
  "\u6307\u70b9": 5107,
  "\u957f\u5b89\u57ce": 5108,
  "\u2581ngh\u00ecn": 5109,
  "\u2581t\u1ee3n": 5110,
  "\u542c\u89c1": 5111,
  "\u5f88\u957f\u65f6\u95f4": 5112,
  "\u2581\u6556": 5113,
  "\u4e0d\u89e3": 5114,
  "\u5728\u5927": 5115,
  "\u771f\u771f": 5116,
  "\u2581\u0111\u00fac": 5117,
  "\u2581H\u01b0\u01a1ng": 5118,
  "\u2581\u00e0o": 5119,
  "\u52aa\u529b": 5120,
  "V\u1ea1n": 5121,
  "\u2581th\u1ed5": 5122,
  "\u77e5\u6653": 5123,
  "\u2581\u0110\u01b0\u01a1ng": 5124,
  "\u7738\u5149": 5125,
  "\u81f3\u6781": 5126,
  "\u2581\u795e\u9f99": 5127,
  "\u2581Huy\u00ean": 5128,
  "\u5e73\u65f6": 5129,
  "\u5185\u5fc3": 5130,
  "\u2581lu\u00e2n": 5131,
  "\u4e5d\u91cd": 5132,
  "\u5f88\u597d": 5133,
  "\u60dc\u541b": 5134,
  "\u85cf\u7740": 5135,
  "\u2581Lo\u1ea1i": 5136,
  "\u738b\u626c": 5137,
  "\u2581\u89c1\u5230": 5138,
  "\u4fee\u884c\u8005": 5139,
  "\u6c89\u541f": 5140,
  "\u5374\u6ca1\u6709": 5141,
  "\u2581tr\u00f9m": 5142,
  "\u2581\u7f57": 5143,
  "\u2581\u9e3f\u8499": 5144,
  "\u2581ng\u00f4n": 5145,
  "\u4e0d\u6b62": 5146,
  "\u2581l\u01b0\u1eddng": 5147,
  "\u2581phi\u1ebfn": 5148,
  "\u672c\u4e8b": 5149,
  "\u51fa\u73b0\u5728\u4e86": 5150,
  "\u65a9\u6740": 5151,
  "\u0110\u00e3": 5152,
  "\u6697\u6697": 5153,
  "\u2581b\u1edbt": 5154,
  "\u5c0a\u8005": 5155,
  "\u5f3a\u7684": 5156,
  "\u638c\u6559": 5157,
  "\u7684\u98ce": 5158,
  "\u2581\u51e4": 5159,
  "\u4e0d\u65ad\u7684": 5160,
  "\u2581Ph\u00fac": 5161,
  "\u6b66\u5b66": 5162,
  "\u2581ng\u1ea5t": 5163,
  "\u2581\u0110\u01b0\u1ee3c": 5164,
  "\u81ea\u4ece": 5165,
  "\u0110an": 5166,
  "\u7adf\u7136\u662f": 5167,
  "\u90fd\u65e0\u6cd5": 5168,
  "\u2581b\u1ecdc": 5169,
  "?!": 5170,
  "\u2581tro": 5171,
  "\u2581\u5bf9\u4e8e": 5172,
  "\u8138\u4e0a\u7684": 5173,
  "\u6740\u610f": 5174,
  "\u6700\u5927\u7684": 5175,
  "\u2581h\u1ed1": 5176,
  "\u4e00\u53cc": 5177,
  "\u592a\u9633": 5178,
  "\u2581d\u0169ng": 5179,
  "\u5988\u54aa": 5180,
  "\u2581\u6709": 5181,
  "\u5973\u5b69": 5182,
  "\u2581\u70df\u971e": 5183,
  "\u2581\u968f\u7740": 5184,
  "\u2581C\u00f4n": 5185,
  "\u2581Kh\u1ea3i": 5186,
  "\u6323\u624e": 5187,
  "\u4e94\u884c\u5723": 5188,
  "\u2581th\u00f4": 5189,
  "\u6570\u767e": 5190,
  "\u94f6\u5b50": 5191,
  "\u518d\u52a0\u4e0a": 5192,
  "\u2581\u91d1": 5193,
  "\u865a\u65e0": 5194,
  "\u2581v\u1edd": 5195,
  "\u2581c\u01b0\u1ee3c": 5196,
  "\u2581ngh\u00eanh": 5197,
  "\u4e0d\u4e45": 5198,
  "\u70ed\u95f9": 5199,
  "\u77ed\u77ed": 5200,
  "\u78c5\u7934": 5201,
  "\u2581c\u00e0nh": 5202,
  "\u2581Ph\u00f9ng": 5203,
  "\u767d\u9f99": 5204,
  "\u8513\u5ef6": 5205,
  "\u2581nh\u1ecbp": 5206,
  "\u4e07\u91d1": 5207,
  "\u2581C\u00e2u": 5208,
  "\u2581Th\u1eafng": 5209,
  "\u52a0\u5165": 5210,
  "\u4e00\u6123": 5211,
  "\u5bf9\u65b9\u7684": 5212,
  "\u6df1\u5438": 5213,
  "\u2581L\u1eadp": 5214,
  "\u2581ru\u1ed9t": 5215,
  "\u5fc5\u8981": 5216,
  "\u800c\u4e0b": 5217,
  "\u4e86\u51fa\u53bb": 5218,
  "\u2581s\u1ea3nh": 5219,
  "\u2581L\u01b0\u1ee3ng": 5220,
  "\u53bb\u627e": 5221,
  "\u6012\u706b": 5222,
  "\u6bcd\u4eb2": 5223,
  "\u2581V\u0129": 5224,
  "\u2581b\u00e1c": 5225,
  "\u00f2m": 5226,
  "\u5f97\u610f": 5227,
  "\u6ca1\u9519": 5228,
  "\u2581Ph\u01b0\u1eddng": 5229,
  "\u4ed9\u4eba": 5230,
  "\u591c\u8272": 5231,
  "\u800c\u6765\u7684": 5232,
  "\u53f9\u4e86\u53e3\u6c14": 5233,
  "\u2581khen": 5234,
  "\u5c71\u8109": 5235,
  "\u2581So\u00e1i": 5236,
  "\u2581M\u00ea": 5237,
  "\u2581Xu": 5238,
  "\u5fc3\u4e2d\u7684": 5239,
  "\u4e00\u5e74": 5240,
  "\u628a\u4ed6": 5241,
  "\u8d1f\u8d23": 5242,
  "\u8ddf\u6211": 5243,
  "Thu": 5244,
  "\u2581h\u00ed": 5245,
  "\u4ea4\u4ee3": 5246,
  "\u76f8\u5bf9": 5247,
  "\u2581g\u00f5": 5248,
  "\u2581Tr\u00e1c": 5249,
  "\u4e00\u5929": 5250,
  "\u56db\u5341": 5251,
  "\u5802\u4e3b": 5252,
  "\u5f53\u573a": 5253,
  "\u2581S\u00e1ch": 5254,
  "\u2581\u90a3\u4e2a": 5255,
  "\u638c\u5fc3": 5256,
  "\u6545\u610f": 5257,
  "\u4e0e\u4ed6": 5258,
  "\u5927\u7b11": 5259,
  "\u2581d\u1ecdn": 5260,
  "\u5931\u671b": 5261,
  "\u628a\u63e1": 5262,
  "\u660e\u5170": 5263,
  "\u7edd\u671b": 5264,
  "\u836f\u5e08": 5265,
  "\u2581Nhu\u1ec7": 5266,
  "T\u1ea1i": 5267,
  "\u4f60\u600e\u4e48": 5268,
  "\u5149\u8f89\u4e4b": 5269,
  "\u795e\u6765": 5270,
  "\u79bb\u5c71": 5271,
  "\u51e1\u4eba": 5272,
  "\u2581non": 5273,
  "H\u1eafn": 5274,
  "\u4e86\u8bb8\u591a": 5275,
  "\u7b11\u7740\u8bf4\u9053": 5276,
  "\u2581\u1ea3m": 5277,
  "\u2581\u0111\u1ea7m": 5278,
  "\u6df7\u4e71": 5279,
  "\u5927\u5e1d": 5280,
  "\u592a\u4e0a": 5281,
  "\u662f\u4f60": 5282,
  "\u4e00\u6014": 5283,
  "\u548c\u4ed6": 5284,
  "\u5929\u52ab": 5285,
  "\u6de1\u7136": 5286,
  "\u2581\u0110\u1ec3": 5287,
  "\u2581tu\u00f4n": 5288,
  "\u5177\u4f53": 5289,
  "\u592b\u5b50": 5290,
  "\u7ed3\u4e39": 5291,
  "\u4e86\u4e0d\u5c11": 5292,
  "\u5973\u795e": 5293,
  "\u653e\u8fc7": 5294,
  "\u2581v\u00fat": 5295,
  "\u2581Vi\u1ec7c": 5296,
  "\u2581th\u00e1c": 5297,
  "\u2581ph\u01b0\u1eddng": 5298,
  "\u6b7b\u6b7b": 5299,
  "\u5b8c\u4e86": 5300,
  "\u8eab\u7a7f": 5301,
  "\u2581ngh\u1ec1": 5302,
  "\u4ef7\u683c": 5303,
  "\u660e\u4eae": 5304,
  "\u84ec\u83b1": 5305,
  "\u2581\u987e\u8d1d": 5306,
  "\u4e86\u5f88\u591a": 5307,
  "\u8111\u6d77\u4e2d": 5308,
  "\u4eba\u5f71": 5309,
  "\u53f6\u5b97": 5310,
  "\u6015\u662f": 5311,
  "\u62cd\u4e86": 5312,
  "\u62ff\u7740": 5313,
  "\u2581Th\u1ecb": 5314,
  "\u2581th\u1ee7ng": 5315,
  "\u767d\u8863": 5316,
  "\u6697\u4e2d": 5317,
  "\u2581Lu": 5318,
  "\u2581su\u1ed1i": 5319,
  "\u4e4b\u6cd5": 5320,
  "\u5929\u5c0a": 5321,
  "\u8349\u539f": 5322,
  "\u2581\u65b9\u9752": 5323,
  "\u2581b\u00f3p": 5324,
  "\u2581m\u1ed9ng": 5325,
  "\u8d85\u7ea7": 5326,
  "\u2581H\u00e0m": 5327,
  "\u89c1\u8bc6": 5328,
  "\u964d\u4e34": 5329,
  "\u2581m\u1ea5u": 5330,
  "\u2581x\u00f3a": 5331,
  "\u2581c\u01b0": 5332,
  "\u865a\u7a7a\u4e2d": 5333,
  "\u95e8\u524d": 5334,
  "\u4e00\u4e0b\u5b50": 5335,
  "\u2581m\u1ea1c": 5336,
  "\u2581v\u1eb9n": 5337,
  "\u2581Thi\u1ec7n": 5338,
  "\u00c2m": 5339,
  "\u2581Vi": 5340,
  "\u2581\u00f3c": 5341,
  "\u2581n\u00e3o": 5342,
  "\u5934\u4e0a": 5343,
  "\u662f\u5426": 5344,
  "\u2581Kha": 5345,
  "\u2581E": 5346,
  "\u4ed6\u4e0d": 5347,
  "\u2581khi\u1ebft": 5348,
  "\u552f\u6709": 5349,
  "\u5f7c\u6b64": 5350,
  "\u6700\u591a": 5351,
  "**": 5352,
  "\u6000\u91cc": 5353,
  "\u8fde\u8fde": 5354,
  "\u2581s\u1ec9": 5355,
  "\u5b9e\u9645\u4e0a": 5356,
  "\u5c31\u5df2\u7ecf": 5357,
  "\u5723\u5b50": 5358,
  "\u601d\u8003": 5359,
  "\u8d85\u8fc7": 5360,
  "\u2581c\u1ea5u": 5361,
  "\u600e\u4e48\u56de\u4e8b": 5362,
  "\u5927\u5e08\u5144": 5363,
  "\u2581ngh\u1ec7": 5364,
  "\u2019,": 5365,
  "\u505a\u51fa": 5366,
  "\u547d\u8fd0": 5367,
  "\u627f\u8ba4": 5368,
  "\u9707\u64bc": 5369,
  "\u4e16\u754c\u7684": 5370,
  "\u2581\u0111\u00e3i": 5371,
  "\u5728\u610f": 5372,
  "\u7a7f\u8fc7": 5373,
  "\u2581\u2014\u2014": 5374,
  "\u89e3\u91ca\u9053": 5375,
  "\u5927\u91cf": 5376,
  "\u2581nho": 5377,
  "\u4f55\u65f6": 5378,
  "\u5b9a\u4e86": 5379,
  "\u8001\u592b": 5380,
  "\u987e\u8d1d": 5381,
  "\u53ef\u4e0d\u662f": 5382,
  "\u1eebu": 5383,
  "\u65f6\u7a7a": 5384,
  "\u9762\u65e0": 5385,
  "\u65e0\u8bba\u662f": 5386,
  "\u2581\u1ed1ng": 5387,
  "\u2581tr\u1ea1i": 5388,
  "\u2581\u0111i\u1ec1n": 5389,
  "\u5fd8\u8bb0": 5390,
  "\u65e0\u4e0a": 5391,
  "\u2581Tr\u1ea5n": 5392,
  "\u2581tuy\u00ean": 5393,
  "\u1ea1y": 5394,
  "\u5306\u5306": 5395,
  "\u62c5\u5fe7": 5396,
  "\u9f99\u7687": 5397,
  "\u2581Gian": 5398,
  "\u672a\u5fc5": 5399,
  "\u4f60\u80fd": 5400,
  "\u5fcc\u60ee": 5401,
  "\u6389\u4e86": 5402,
  "\u2581v\u1ee9t": 5403,
  "\u53f0\u4e0a": 5404,
  "\u2581Kh\u01b0": 5405,
  "\u4eba\u4eec": 5406,
  "\u843d\u5230": 5407,
  "\u7a76\u7adf\u662f": 5408,
  "\u2581\u0111\u0103ng": 5409,
  "\u4e4c\u4e91": 5410,
  "\u6298\u8896": 5411,
  "\u751f\u673a": 5412,
  "\u2581T\u1eebng": 5413,
  "\u2581Thi\u1ec1n": 5414,
  "\u4e00\u4eae": 5415,
  "\u5206\u660e": 5416,
  "\u5929\u4f51": 5417,
  "\u4f4e\u58f0": 5418,
  "\u5927\u80fd": 5419,
  "\u2581qu\u1ea3ng": 5420,
  "\u4e00\u6765": 5421,
  "\u6027\u547d": 5422,
  "\u7709\u5fc3": 5423,
  "\u2581S\u0129": 5424,
  "\u5927\u5730": 5425,
  "\u7684\u90a3\u4e2a": 5426,
  "\u2581c\u1eb1m": 5427,
  "\u2581l\u0169y": 5428,
  "\u2581chu\u00f4ng": 5429,
  "\u7f8e\u4e3d": 5430,
  "\u2581s\u1ea7m": 5431,
  "\u2581nh\u01b0\u1eddng": 5432,
  "\u60ca\u559c": 5433,
  "\u98ce\u66b4": 5434,
  "\u2581Gi\u00e1c": 5435,
  "\u2581Ph\u1ea7n": 5436,
  "\u2581l\u0103ng": 5437,
  "\u2581kho\u00e1i": 5438,
  "\u2581phi\u00eau": 5439,
  "\u2581May": 5440,
  "\u5728\u6b64": 5441,
  "\u62ff\u51fa": 5442,
  "\u6765\u4e0d\u53ca": 5443,
  "\u2581R\u00f5": 5444,
  "\u4e0d\u7531\u5f97": 5445,
  "\u5e72\u4ec0\u4e48": 5446,
  "\u5bf9\u6211": 5447,
  "\u60ca\u4eba": 5448,
  "\u7206\u70b8": 5449,
  "\u7687\u540e": 5450,
  "\u2581l\u0103m": 5451,
  "\u6761\u4ef6": 5452,
  "\u2581\u5475\u5475": 5453,
  "Tr\u1ea7n": 5454,
  "Vi\u00eam": 5455,
  "\u2581ty": 5456,
  "\u2581kh\u1ef1ng": 5457,
  "\u2581kh\u1ed1c": 5458,
  "\u2581\u0110\u1ed9": 5459,
  "Trong": 5460,
  "\u62b5\u6321": 5461,
  "\u767d\u7684": 5462,
  "\u0110i": 5463,
  "\u5f20\u5e08": 5464,
  "\u2581Qu\u00e1n": 5465,
  "\u4ed9\u672f": 5466,
  "\u2581m\u00e1": 5467,
  "\u4eff\u4f5b\u662f": 5468,
  "\u00c2u": 5469,
  "\u547d\u4ee4": 5470,
  "\u6797\u519b": 5471,
  "\u53d1\u6325": 5472,
  "\u4ed6\u77e5\u9053": 5473,
  "\u60ca\u4eba\u7684": 5474,
  "\u4ef7\u503c": 5475,
  "\u7ea2\u9c7c": 5476,
  "\u2581\u0110\u0103ng": 5477,
  "\u2581Ty": 5478,
  "\u811a\u4e0b": 5479,
  "\u8fd0\u6c14": 5480,
  "\u660a\u5929": 5481,
  "\u6563\u53d1\u51fa": 5482,
  "\u7709\u5934\u4e00": 5483,
  "\u5c3d\u7ba1": 5484,
  "\u6b66\u6280": 5485,
  "Sau": 5486,
  "\u2581g\u00e0": 5487,
  "\u65e0\u6570\u9053": 5488,
  "\u2581Kh\u00e2u": 5489,
  "H\u00f3a": 5490,
  "\u66f4\u4f55\u51b5": 5491,
  "\u4e86\u4e0b": 5492,
  "\u2581\u1ee7i": 5493,
  "\u4e86\u4e0b\u53bb": 5494,
  "\u5486\u54ee": 5495,
  "\u63e1\u7740": 5496,
  "\u73cd\u8d35": 5497,
  "\u2581t\u1ea9y": 5498,
  "\u2581Quy\u1ec1n": 5499,
  "\u4e0d\u51e1": 5500,
  "\u534a\u5929": 5501,
  "\u4e5f\u65e0\u6cd5": 5502,
  "\u7684\u8138\u4e0a": 5503,
  "\u5f02\u9b54": 5504,
  "\u9648\u4f36": 5505,
  "\u9b54\u541b": 5506,
  "\u2581d\u00e0nh": 5507,
  "......\u201d\u201c": 5508,
  "\u5408\u9053": 5509,
  "\u5b97\u6d3e": 5510,
  "\u2581B\u1eb1ng": 5511,
  "\u4e0d\u660e\u767d": 5512,
  "\u2581N\u1ed9i": 5513,
  "\u2581Mi\u00eau": 5514,
  "\u5b8c\u6574": 5515,
  "\u7565\u5fae": 5516,
  "\u7b54\u6848": 5517,
  "\u2581v\u1ea5t": 5518,
  "\u5b66\u4e60": 5519,
  "\u5b66\u5458": 5520,
  "\u2581n\u1ec3": 5521,
  "\u6f06\u9ed1": 5522,
  "\u4e4b\u4e3b": 5523,
  "\u5343\u4e07": 5524,
  "\u4e00\u987f": 5525,
  "\u4e0d\u53bb": 5526,
  "\u950b\u5229": 5527,
  "\u4e0d\u5bb9\u6613": 5528,
  "\u4e5f\u4e0d\u80fd": 5529,
  "\u8eab\u540e\u7684": 5530,
  "\u53d7\u4f24": 5531,
  "\u6495\u88c2": 5532,
  "\u300b,": 5533,
  "\u2581\u4ee5": 5534,
  "\u559d\u9053": 5535,
  "\u2581L\u0129nh": 5536,
  "\u963b\u6b62": 5537,
  "\u2581cau": 5538,
  "\u2581quy\u1ec3n": 5539,
  "D\u00f9": 5540,
  "\u519b\u961f": 5541,
  "\u2581g\u1ee3n": 5542,
  "\u2581than": 5543,
  "\u4f1a\u957f": 5544,
  "\u2581nh\u1ecdn": 5545,
  "\u4e0d\u7518": 5546,
  "\u2581\u01b0\u1edbt": 5547,
  "\u2581ti\u1ec5n": 5548,
  "\u5a01\u538b": 5549,
  "\u987a\u5229": 5550,
  "\u6c89\u9ed8\u4e86": 5551,
  "\u2581g\u1ea1t": 5552,
  "\u2581th\u1ea3y": 5553,
  "\u5173\u4e8e": 5554,
  "\u2581t\u1ed1": 5555,
  "\u2581r\u00edt": 5556,
  "\u4f1a\u7684": 5557,
  "\u2581hi": 5558,
  "\u56de\u6765\u4e86": 5559,
  "\u4e0a\u65b9": 5560,
  "\u8116\u5b50": 5561,
  "H\u1eafc": 5562,
  "\u2581M\u1eb7t": 5563,
  "\u770b\u4ed6": 5564,
  "\u2581r\u00e2u": 5565,
  "\u2581Gi\u00e1m": 5566,
  "\u7687\u5b50": 5567,
  "\u4e5f\u4e0d\u6562": 5568,
  "\u2581L\u1ed7i": 5569,
  "\u4e0d\u8bed": 5570,
  "\u597d\u4f3c": 5571,
  "\u8e0f\u5165": 5572,
  "\u795e\u79d8\u7684": 5573,
  "\u2581h\u00e0m": 5574,
  "\u96f7\u5149": 5575,
  "\u8fd9\u5c0f\u5b50": 5576,
  "\u6839\u672c\u6ca1\u6709": 5577,
  "\u9886\u57df": 5578,
  "\u5468\u56f4\u7684": 5579,
  "\u2581g\u1ed3m": 5580,
  "\u2581x\u1eb9t": 5581,
  "\u9762\u65e0\u8868\u60c5": 5582,
  "\u79cd\u79cd": 5583,
  "\u8bd5\u56fe": 5584,
  "\u2581g\u1eaft": 5585,
  "\u2581mu\u1ed1i": 5586,
  "\u5632\u8bbd": 5587,
  "\u711a\u5929": 5588,
  "\u7684\u65b9\u5411": 5589,
  "\u2581\u9646": 5590,
  "\u4e09\u9636": 5591,
  "\u2581\u5927\u7f57": 5592,
  "\u2581b\u00f4ng": 5593,
  "\u6c34\u6676": 5594,
  "\u884c\u793c": 5595,
  "\u2581t\u00e1o": 5596,
  "\u5143\u95e8": 5597,
  "\u53cc\u7738": 5598,
  "\u6700\u91cd\u8981": 5599,
  "\u2581L\u1ec7nh": 5600,
  "\u4e86\u5979": 5601,
  "\u5bf9\u9762": 5602,
  "\u7f13\u6162": 5603,
  "\u968f\u624b": 5604,
  "\u2581v\u0129": 5605,
  "\u60f3\u4e0d\u5230": 5606,
  "\u90fd\u5df2\u7ecf": 5607,
  "\u5341\u4f59": 5608,
  "\u7740\u4ed6": 5609,
  "\u4e5f\u662f\u5728": 5610,
  "\u8fd9\u4e00\u70b9": 5611,
  "\u2581hi\u1ec7p": 5612,
  "\u25813": 5613,
  "\u2581\u0111\u00f2i": 5614,
  "\u2581ti\u1ec7c": 5615,
  "\u8054\u624b": 5616,
  "\u2581b\u00f9n": 5617,
  "\u2581Ch\u00e2m": 5618,
  "\u4fbf\u80fd": 5619,
  "\u5229\u7528": 5620,
  "\u4e16\u5bb6\u7684": 5621,
  "\u2581h\u00f2n": 5622,
  "\u6536\u83b7": 5623,
  "\u8fd9\u70b9": 5624,
  "\u2581\u59da": 5625,
  "\u7834\u788e": 5626,
  "\u7559\u4e0b\u7684": 5627,
  "\u2581\u4e94": 5628,
  "\u534a\u7a7a": 5629,
  "\u7fbd\u6797\u519b": 5630,
  "\u2581ch\u1edf": 5631,
  "\u5fd8\u4e86": 5632,
  "\u4f20\u9001": 5633,
  "\u524d\u4e16": 5634,
  "\u5728\u6211": 5635,
  "\u5e74\u7684": 5636,
  "\u6267\u4e8b": 5637,
  "\u65b9\u5f0f": 5638,
  "\u65e0\u5f62": 5639,
  "\u8001\u592a": 5640,
  "\u8fd8\u4ee5\u4e3a": 5641,
  "Sinh": 5642,
  "\u2581C\u1ea7m": 5643,
  "\u2581tuy\u1ebfn": 5644,
  "\u4e00\u51fb": 5645,
  "\u7075\u865a": 5646,
  "\u4e00\u5251": 5647,
  "\u7740\u5934": 5648,
  "\u2581\u9e3f\u8499\u9020\u5316": 5649,
  "\u5929\u7384": 5650,
  "Ngh": 5651,
  "\u4ed6\u5df2\u7ecf": 5652,
  "\u901a\u5929\u5883": 5653,
  "\u7834\u4e86": 5654,
  "\u9ed1\u9f99": 5655,
  "\u505c\u4e0b": 5656,
  "\u8fd9\u4e1c\u897f": 5657,
  "\u2581Tuy\u00ean": 5658,
  "\u0110o": 5659,
  "\u521d\u671f": 5660,
  "\u2581Bi": 5661,
  "\u2581g\u00f2": 5662,
  "\u5931\u53bb\u4e86": 5663,
  "\u7684\u76ef\u7740": 5664,
  "\u90a3\u5c31\u662f": 5665,
  "\u6797\u5bb6": 5666,
  "\u5c31\u8fd9\u4e48": 5667,
  "\u2581nh\u00e1t": 5668,
  "Hai": 5669,
  "\u2581C\u1ea3": 5670,
  "\u674e\u5bb6": 5671,
  "\u6a21\u7cca": 5672,
  "\u90a3\u7247": 5673,
  "\u4e00\u8f6c": 5674,
  "\u98ce\u96f7": 5675,
  "\u5927\u90e8\u5206": 5676,
  "\u2581Duy": 5677,
  "\u89c1\u4e86": 5678,
  "\u4e00\u5b9a\u4f1a": 5679,
  "\u2581D\u01b0\u1eddng": 5680,
  "\u51dd\u96ea": 5681,
  "\u751f\u610f": 5682,
  "\u2581Khung": 5683,
  "\u5904\u4e8e": 5684,
  "\u96be\u770b": 5685,
  "\u2581\u4e24\u4eba": 5686,
  "\u2581thi\u1ec7u": 5687,
  "\u9eef\u6de1": 5688,
  "\u53d1\u73b0\u4e86": 5689,
  "\u5728\u6797\u52a8": 5690,
  "\u4e00\u5c0a": 5691,
  "\u4f20\u6cd5": 5692,
  "\u5468\u901a": 5693,
  "\u5c1d\u8bd5": 5694,
  "\u865a\u7a7a\u4e4b\u4e2d": 5695,
  "\u4e4b\u9645": 5696,
  "\u2581qu\u1ea5y": 5697,
  "\u4e00\u6839": 5698,
  "\u53d7\u4e86": 5699,
  "\u6027\u7684": 5700,
  "\u2581Th\u1ecf": 5701,
  "\u2581c\u1eafm": 5702,
  "\u5374\u53c8": 5703,
  "\u90a3\u80a1": 5704,
  "\u4e4b\u4e0a\u7684": 5705,
  "\u4e86\u4e00\u79cd": 5706,
  "\u0110\u00f4ng": 5707,
  "\u2581sen": 5708,
  "\u2581\u9648\u957f\u751f": 5709,
  "\u1ed9p": 5710,
  "\u7684\u9752": 5711,
  "\u98de\u53bb": 5712,
  "\u2581m\u00ed": 5713,
  "\u53cd\u5e94\u8fc7\u6765": 5714,
  "\u4f60\u53ef": 5715,
  "\u4f24\u5bb3": 5716,
  "\u56de\u4e86": 5717,
  "\u2581nan": 5718,
  "\u2581Kh\u00f3e": 5719,
  "\u4e4b\u7269": 5720,
  "\u5185\u5bb9": 5721,
  "\u5929\u5143": 5722,
  "\u2581D\u1eabn": 5723,
  "\u8bc6\u6d77": 5724,
  "\u5de5\u4f5c": 5725,
  "\u4e00\u4e2a\u5c0f": 5726,
  "\u2581d\u1ea1o": 5727,
  "\u2581Kh\u00e1ch": 5728,
  "\u6bd4\u8bd5": 5729,
  "\u2581T\u1ea7m": 5730,
  "\u4fbf\u4f1a": 5731,
  "\u4e4b\u5883": 5732,
  "\u6155\u5bb9": 5733,
  "\u2581b\u1ed5n": 5734,
  "\u4ec5\u4ec5\u53ea\u662f": 5735,
  "C\u1ed5": 5736,
  "\u2581lu\u1eadt": 5737,
  "\u5fc3\u4e2d\u4e00": 5738,
  "\u6127\u662f": 5739,
  "\u8bc1\u660e": 5740,
  "\u8be7\u5f02": 5741,
  "L\u00e3o": 5742,
  "\u5982\u4eca\u7684": 5743,
  "\u89c6\u4e00\u773c": 5744,
  "\u2581h\u1ec7t": 5745,
  "\u2581nham": 5746,
  "\u4ee5\u6765": 5747,
  "\u5929\u5251": 5748,
  "\u5343\u4e16\u754c": 5749,
  "\u8868\u793a": 5750,
  "\u2581s\u00f3i": 5751,
  "\u795e\u5bab": 5752,
  "\u6211\u4eec\u7684": 5753,
  "\u2581Bi\u1ebft": 5754,
  "\u2581\u6613": 5755,
  "\u5929\u661f": 5756,
  "\u59b9\u59b9": 5757,
  "\u5dee\u8ddd": 5758,
  "\u2581n\u1ee3": 5759,
  "\u2581t\u00e2n": 5760,
  "\u2581Hi\u1ec3u": 5761,
  "\u2581Xung": 5762,
  "\u2581Nghi\u00eam": 5763,
  "\u53ea\u597d": 5764,
  "\u7ea2\u8272": 5765,
  "\u2581\u0111\u1ee9c": 5766,
  "\u56f0\u96be": 5767,
  "\u5927\u95e8": 5768,
  "\u2581c\u1ee1": 5769,
  "\u4e0d\u7b97": 5770,
  "\u5a49\u67d4": 5771,
  "\u2581n\u1ec1n": 5772,
  "\u5934\u53d1": 5773,
  "\u6000\u4e2d": 5774,
  "\u800c\u8fc7": 5775,
  "\u62cd\u4e86\u62cd": 5776,
  "\u2581\u300a": 5777,
  "\u9664\u975e": 5778,
  "\u2581Tr\u00ecnh": 5779,
  "\u2581Tr\u1ecbnh": 5780,
  "\u5251\u610f": 5781,
  "\u5b9d\u8d1d": 5782,
  "\u8fd8\u597d": 5783,
  "uynh": 5784,
  "\u0110\u1eebng": 5785,
  "\u2581ch\u1eedng": 5786,
  "\u0129a": 5787,
  "\u99a8\u513f": 5788,
  "\u80af\u5b9a\u4f1a": 5789,
  "\u2581thong": 5790,
  "\u5634\u5507": 5791,
  "\u5b8c\u7f8e": 5792,
  "\u5f88\u4e45": 5793,
  "\u65ad\u4e86": 5794,
  "\u7ffc\u7ffc": 5795,
  "\u2581h\u1ed7": 5796,
  "\u2581Ngu": 5797,
  "\u2581thu\u00ea": 5798,
  "\u2581\u770b\u6765": 5799,
  "\u4e0b\u6765\u7684": 5800,
  "\u9762\u524d\u7684": 5801,
  "\u2581xen": 5802,
  "\u2581l\u01b0\u1ee1ng": 5803,
  "\u4ea4\u624b": 5804,
  "\u2581C\u00e1ch": 5805,
  "\u4e66\u7c4d": 5806,
  "\u9ed1\u888d": 5807,
  "\u2581v\u00e1y": 5808,
  "\u2581\u82e5": 5809,
  "\u4fe1\u5fc3": 5810,
  "\u6211\u770b": 5811,
  "\u6bcf\u4e2a": 5812,
  "\u8fb9\u7f18": 5813,
  "\u2581si\u1ebft": 5814,
  "\u6e29\u67d4": 5815,
  "\u9002\u5408": 5816,
  "Y\u00ean": 5817,
  "\u677e\u4e86\u53e3\u6c14": 5818,
  "\u2581C\u1ee9": 5819,
  "\u2581\u5c0f\u8c82": 5820,
  "\u53d6\u51fa": 5821,
  "\u2581\u0110\u1eb7c": 5822,
  "\u2581r\u1ed7ng": 5823,
  "\u4e2d\u671f": 5824,
  "\u5e7f\u573a": 5825,
  "\u751f\u6c14": 5826,
  "\u5c0f\u5fc3\u7ffc\u7ffc": 5827,
  "\u2581Chuy\u1ec3n": 5828,
  "\u4e16\u5b50": 5829,
  "\u4f60\u4e86": 5830,
  "\u2581trao": 5831,
  "\u2581ngo\u00e3n": 5832,
  "\u4f60\u60f3": 5833,
  "\u662f\u6709": 5834,
  "\u2581\u96be\u9053": 5835,
  "\u4e0d\u5f97\u4e0d": 5836,
  "\u5176\u4ed6\u7684": 5837,
  "\u6df3\u534e": 5838,
  "\u79d8\u5883": 5839,
  "\u8ddf\u524d": 5840,
  "\u8d3a\u6df3\u534e": 5841,
  "D\u1ea1": 5842,
  "\u1ec5u": 5843,
  "\u91ca\u653e": 5844,
  "\u2581ph\u01b0\u1ee3ng": 5845,
  "\u1eb1n": 5846,
  "\u751f\u51fa": 5847,
  "\u8f70\u9686": 5848,
  "\u7a81\u7834\u5230": 5849,
  "\u6797\u7405\u5929": 5850,
  "\u7740\u6025": 5851,
  "\u50a8\u7269\u888b": 5852,
  "\u9634\u5080\u5b97": 5853,
  "\u2581h\u1ee9a": 5854,
  "\u2581nh\u1ed1t": 5855,
  "\u5316\u795e": 5856,
  "\u65e5\u540e": 5857,
  "\u2581kh\u00e1t": 5858,
  "\u56db\u5927": 5859,
  "\u597d\u51e0": 5860,
  "\u7684\u6d88\u606f": 5861,
  "\u2581H\u00e2n": 5862,
  "\u6545\u4e8b": 5863,
  "\u2581h\u1ecfng": 5864,
  "\u2581\u0110\u00e1ng": 5865,
  "\u4ecb\u7ecd": 5866,
  "\u7684\u653b\u51fb": 5867,
  "\u1ebbo": 5868,
  "\u505a\u4e86": 5869,
  "\u5341\u4e09": 5870,
  "\u9648\u5bb6": 5871,
  "\u2581Ch\u00fa": 5872,
  "\u7684\u773c\u795e\u4e2d": 5873,
  "Tr\u01b0\u1edbc": 5874,
  "\u4e0d\u582a": 5875,
  "\u4e60\u60ef": 5876,
  "\u9756\u738b": 5877,
  "\u2581h\u1eb9n": 5878,
  "\u503c\u5f97": 5879,
  "\u5f88\u5c11": 5880,
  "\u7684\u4eba\u7269": 5881,
  "\u4ed6\u5bf9": 5882,
  "\u5929\u96f7": 5883,
  "\u6daf\u5b50": 5884,
  "Tuy": 5885,
  "\u2581gi\u1eabm": 5886,
  "\u5a01\u4e25": 5887,
  "\u6297\u8861": 5888,
  "\u7ecf\u9a8c": 5889,
  "\u4f17\u4eba\u7684": 5890,
  "\u4f53\u5185\u7684": 5891,
  "\u2581t\u00e0ng": 5892,
  "\u5feb\u7684": 5893,
  "\u6f29\u6da1": 5894,
  "\u4e0d\u9700\u8981": 5895,
  "\u2581h\u1ecdng": 5896,
  "\u2581ng\u1ea7m": 5897,
  "\u4f24\u53e3": 5898,
  "\u671d\u5ef7": 5899,
  "\u2581d\u1eddi": 5900,
  "\u2581Trai": 5901,
  "Xem": 5902,
  "\u5317\u8fb0\u5f71": 5903,
  "\u2581\u0110\u1ea5u": 5904,
  "\u2581Ng\u1ee5c": 5905,
  "\u2581s\u1eebng": 5906,
  "\u4e0d\u8db3": 5907,
  "\u2581lung": 5908,
  "\u7409\u7483": 5909,
  "\u2581r\u00f3t": 5910,
  "\u51b7\u7b11\u4e00\u58f0": 5911,
  "\u2581kh\u00fac": 5912,
  "\u2581nghi\u1ec7t": 5913,
  "\u5305\u62ec": 5914,
  "\u624b\u8155": 5915,
  "\u7728\u773c": 5916,
  "\u8981\u4e48": 5917,
  "\u82e5\u6709\u6240": 5918,
  "\u897f\u9675\u795e\u6bbf": 5919,
  "\u2581b\u01b0ng": 5920,
  "\u2581gi\u1ec5u": 5921,
  "\u731b\u7684": 5922,
  "\u8fd9\u756a": 5923,
  "Chu": 5924,
  "\u2581B\u1ed1n": 5925,
  "\u5e73\u539f": 5926,
  "\u5f80\u540e": 5927,
  "\u79bb\u5bab": 5928,
  "\u9b3c\u738b": 5929,
  "\u53c8\u5982\u4f55": 5930,
  "\u2581ch\u1eedi": 5931,
  "\u2581s\u1eedng": 5932,
  "\u5206\u522b": 5933,
  "\u771f\u8981": 5934,
  "\u2581v\u1eb9o": 5935,
  "\u659f\u914c": 5936,
  "\u6765\u770b": 5937,
  "\u6cd5\u672f": 5938,
  "\u5c31\u8fd9\u6837": 5939,
  "\u56db\u4eba": 5940,
  "\u666f\u8c61": 5941,
  "\u2581d\u1ea1i": 5942,
  "\u4e0d\u5fc5": 5943,
  "\u5927\u8352": 5944,
  "\u6025\u901f": 5945,
  "\u2581g\u1ea3": 5946,
  "\u4e00\u4f1a\u513f": 5947,
  "\u529b\u7684": 5948,
  "\u624b\u4e0a": 5949,
  "\u7384\u5929": 5950,
  "\u2581H\u1ea1c": 5951,
  "\u661f\u5149": 5952,
  "\u2581\u4e07": 5953,
  "\u52a8\u7684": 5954,
  "\u89c2\u4e3b": 5955,
  "\u2581th\u00f9ng": 5956,
  "\u2581\u7b2c": 5957,
  "\u5251\u6cd5": 5958,
  "\u5927\u5510": 5959,
  "\u5bfc\u81f4": 5960,
  "\u2581\u00e1i": 5961,
  "\u4e2d\u95f4": 5962,
  "\u4ecd\u7136": 5963,
  "\u4f46\u5728": 5964,
  "\u8bae\u8bba": 5965,
  "\u9053\u7956": 5966,
  "\u5979\u662f": 5967,
  "\u5e9f\u7269": 5968,
  "\u7b26\u7b93": 5969,
  "\u7b49\u7b49": 5970,
  "\u2581d\u1ea7u": 5971,
  "\u2581hi\u1ebfn": 5972,
  "\u6216\u662f": 5973,
  "\u7684\u5929\u624d": 5974,
  "\u8f7b\u58f0\u9053": 5975,
  "\u4e0d\u5c51": 5976,
  "\u4fbf\u5b9c": 5977,
  "\u8868\u9762": 5978,
  "\u8d70\u8fdb": 5979,
  "\u8ddf\u4ed6": 5980,
  "\u9633\u5149": 5981,
  "\u5728\u90a3\u91cc": 5982,
  "\u2581Binh": 5983,
  "\u2581ng\u1ee7i": 5984,
  "\u504f\u504f": 5985,
  "\u60c5\u62a5": 5986,
  "\u6301\u7eed": 5987,
  "\u2581\u53ea\u89c1": 5988,
  "\u4e5f\u53ef\u4ee5": 5989,
  "\u4ed6\u8fd8": 5990,
  "\u5076\u5c14": 5991,
  "\u5341\u5e74": 5992,
  "\u8bf4\u5f97": 5993,
  "\u4e00\u76f4\u5728": 5994,
  "\u2581s\u1ea3ng": 5995,
  "\u5b88\u62a4": 5996,
  "\u611f\u77e5": 5997,
  "\u672c\u5ea7": 5998,
  "\u8d64\u7ea2": 5999,
  "\u9053\u95e8": 6000,
  "\u2581r\u1eadm": 6001,
  "\u6839\u636e": 6002,
  "\u987e\u5ef6\u821f": 6003,
  "L\u0103ng": 6004,
  "\u6839\u672c\u65e0\u6cd5": 6005,
  "\u2581th\u1ecbnh": 6006,
  "\u5916\u754c": 6007,
  "\u9519\u4e86": 6008,
  "\u7684\u539f\u56e0": 6009,
  "\u98de\u884c": 6010,
  "N\u00f3i": 6011,
  "\u4e86\u4e00\u7247": 6012,
  "\u2581t\u1ea9u": 6013,
  "\u9713\u88f3": 6014,
  "\u8001\u7237\u5b50": 6015,
  "C\u0169ng": 6016,
  "\u2581h\u00edp": 6017,
  "\u795e\u7075": 6018,
  "\u2581ve": 6019,
  "\u2581\u987e\u5ef6\u821f": 6020,
  "\u51fb\u6740": 6021,
  "\u5934\u7684": 6022,
  "\u2581\u6797\u7405\u5929": 6023,
  "\u9010\u6e10\u7684": 6024,
  "\u5e9e\u5927": 6025,
  "\u90a3\u4eba": 6026,
  "\u6240\u8c13\u7684": 6027,
  "\u6df1\u6df1\u7684": 6028,
  "\u2581th\u1ec1": 6029,
  "\u2581c\u1edb": 6030,
  "\u2581c\u1ed1ng": 6031,
  "\u4f60\u5728": 6032,
  "\u77b3\u5b54": 6033,
  "\u4e86\u4e00\u53e3": 6034,
  "\u90fd\u4e0d\u662f": 6035,
  "\u2581tr\u00fat": 6036,
  "\u4e3b\u610f": 6037,
  "\u4fee\u4ed9": 6038,
  "\u5145\u6ee1": 6039,
  "\u5728\u4e0b": 6040,
  "\u5927\u65b9": 6041,
  "M\u1ed9t": 6042,
  "\u53f6\u7ea2\u9c7c": 6043,
  "\u4e00\u523b": 6044,
  "\u5927\u53d8": 6045,
  "\u5929\u4eba": 6046,
  "\u5bf9\u5979": 6047,
  "\u660e\u5929": 6048,
  "\u6740\u622e": 6049,
  "\u7075\u836f": 6050,
  "\u7709\u6bdb": 6051,
  "\u4f4e\u58f0\u9053": 6052,
  "\u2581r\u1eafc": 6053,
  "\u2581\u0110i\u1ec1n": 6054,
  "\u2581\u0110\u1ecbnh": 6055,
  "\u2581Ph\u00e1ch": 6056,
  "\u4e0d\u50cf": 6057,
  "\u4ed6\u624d": 6058,
  "\u5f88\u6709": 6059,
  "\u627e\u5230\u4e86": 6060,
  "\u2581nua": 6061,
  "\u4ed9\u7ecf": 6062,
  "\u7f18\u6545": 6063,
  "\u2581\u0110\u00eam": 6064,
  "\u2581Ki\u1ec7t": 6065,
  "\u2581Nghi\u00eau": 6066,
  "\u2581\u8c01": 6067,
  "\u5df4\u638c": 6068,
  "\u60ca\u6050": 6069,
  "\u9634\u5f71": 6070,
  "\u2581Oa": 6071,
  "\u8fd9\u4e00\u523b": 6072,
  "\u2581Tri": 6073,
  "\u2581T\u00e0i": 6074,
  "\u7ad9\u8d77\u8eab\u6765": 6075,
  "\u4e09\u5929": 6076,
  "\u88c2\u7f1d": 6077,
  "\u4fee\u70bc\u7684": 6078,
  "\u6068\u4e0d\u5f97": 6079,
  "\u2581x\u00e1ch": 6080,
  "\u2581Hu\u1ed1ng": 6081,
  "!!": 6082,
  "\u2581\u1ea1": 6083,
  "\u6838\u5fc3": 6084,
  "\u4e0d\u65ad\u5730": 6085,
  "\u2581th\u01a1m": 6086,
  "\u00fan": 6087,
  "\u5f80\u524d": 6088,
  "\u8fd9\u51e0": 6089,
  "\u5230\u7684": 6090,
  "\u8138\u988a": 6091,
  "\u4e5f\u77e5\u9053": 6092,
  "\u2581\u0111\u1eady": 6093,
  "\u2581Ngo\u1ea1i": 6094,
  "\u2581Kho\u1ea3nh": 6095,
  "\u5374\u88ab": 6096,
  "\u90a3\u5ea7": 6097,
  "\u6211\u77e5\u9053": 6098,
  "\u548c\u6211": 6099,
  "\u6bcf\u6b21": 6100,
  "\u82b1\u8d39": 6101,
  "\u2581O\u1ea3n": 6102,
  "\u2581b\u1ecfng": 6103,
  "\u2581l\u1ee1": 6104,
  "\u2581B\u00e1o": 6105,
  "\u2581h\u00e1n": 6106,
  "\u2581ch\u00f4n": 6107,
  "\u2581thi\u1ec7p": 6108,
  "\u7a7f\u7740": 6109,
  "\u2581K\u1ebb": 6110,
  "\u2581\u1ed3n": 6111,
  "\u4e0d\u505c\u5730": 6112,
  "\u2581C\u1ea9n": 6113,
  "\u6709\u5f88\u591a": 6114,
  "\u2581b\u1ebfp": 6115,
  "\u2581th\u1edd": 6116,
  "\u2581ng\u00e1c": 6117,
  "\u2581th\u1ea9m": 6118,
  "\u2581Hinh": 6119,
  "\u8fd9\u4eba": 6120,
  "\u2581b\u1eefa": 6121,
  "\u660a\u6668": 6122,
  "\u6d2a\u8352": 6123,
  "\u6e29\u548c": 6124,
  "\u76f8\u540c": 6125,
  "\u4ec5\u4ec5\u662f": 6126,
  "\u4e0a\u767e": 6127,
  "\u2581\u4e8e\u662f": 6128,
  "\u2581\u0110\u00e0m": 6129,
  "\u2581Ki\u00eau": 6130,
  "\u73af\u5883": 6131,
  "\u96be\u4ee5\u7f6e\u4fe1": 6132,
  "\u2581ho\u00e0i": 6133,
  "\u2581l\u00ednh": 6134,
  "\u5e74\u8f7b\u4eba": 6135,
  "\u6781\u5927\u7684": 6136,
  "\u4e94\u884c\u5723\u5b97": 6137,
  "\u2581Nh\u00e3n": 6138,
  "\u900f\u7740": 6139,
  "\u4e09\u5e74": 6140,
  "\u5341\u4e94": 6141,
  "\u4e86\u4e00\u822c": 6142,
  "\u5c0f\u548c\u5c1a": 6143,
  "\u2581l\u01b0\u1edbi": 6144,
  "\u2581\u7f57\u5c18": 6145,
  "\u6c89\u58f0\u9053": 6146,
  "\u2581l\u1eb7p": 6147,
  "\u2581\u8001": 6148,
  "\u4ee4\u5f97": 6149,
  "\u5948\u4f55": 6150,
  "\u59d4\u5c48": 6151,
  "\u5c27\u7965": 6152,
  "\u90fd\u53ef\u4ee5": 6153,
  "\u4ed6\u53c8": 6154,
  "\u65e0\u8bed": 6155,
  "\u7206\u53d1\u51fa": 6156,
  "\u2581thao": 6157,
  "\u7075\u73ca": 6158,
  "\u2581m\u1ed7": 6159,
  "\u4ea4\u7ed9": 6160,
  "\u788e\u7247": 6161,
  "\u574a\u5e02": 6162,
  "\u7684\u95ee\u9898": 6163,
  "\u2581\u0110ang": 6164,
  "\u53d1\u751f\u4e86\u4ec0\u4e48": 6165,
  "\u6b66\u8005": 6166,
  "\u715e\u6c14": 6167,
  "\u90a3\u53ea": 6168,
  "\u94ed\u7eb9": 6169,
  "\u770b\u8fc7\u6765": 6170,
  "\u2581n\u00f4n": 6171,
  "\u9756\u5b87": 6172,
  "\u5149\u8f89\u4e4b\u57ce": 6173,
  "\u8c28\u614e": 6174,
  "L\u1ea1c": 6175,
  "\u2581M\u01b0\u1eddi": 6176,
  "\u4e5f\u592a": 6177,
  "\u2581C\u1ea7u": 6178,
  "\u4e0a\u6b21": 6179,
  "\u53ef\u7231": 6180,
  "\u56fd\u5e08": 6181,
  "\u7684\u8001": 6182,
  "\u884c\u8d70": 6183,
  "\u4e86\u4e00\u904d": 6184,
  "\u84ec\u83b1\u6d3e": 6185,
  "\u5185\u90e8": 6186,
  "\u5374\u4e0d": 6187,
  "\u62db\u547c": 6188,
  "\u71d5\u9752\u9e3f": 6189,
  "\u8fd9\u4e24\u4e2a": 6190,
  "\u2581t\u1ed9t": 6191,
  "\u2581gi\u1ee5c": 6192,
  "\u2581\u0111\u1ecdng": 6193,
  "\u2581ngh\u1eb9n": 6194,
  "\u8981\u53bb": 6195,
  "\u96c4\u6d51": 6196,
  "T\u1ea5n": 6197,
  "\u4e09\u7237": 6198,
  "\u5927\u5c0f": 6199,
  "\u6cb3\u5c71": 6200,
  "\u2581d\u00f5i": 6201,
  "\u2581th\u1ee3": 6202,
  "\u53ef\u601c": 6203,
  "\u5b5f\u9713\u88f3": 6204,
  "\u4e4b\u611f": 6205,
  "\u4e86\u773c": 6206,
  "\u9053\u9053": 6207,
  "\u6c14\u5f97": 6208,
  "\u7684\u767d": 6209,
  "\u8840\u8089": 6210,
  "\u4e00\u70b9\u70b9": 6211,
  "\u674e\u901a\u5d16": 6212,
  "\u2581Nghi": 6213,
  "\u2581th\u1eb9n": 6214,
  "\u53d8\u5e7b": 6215,
  "\u624b\u6301": 6216,
  "\u6781\u9650": 6217,
  "\u6de1\u6f20": 6218,
  "\u884c\u4e8b": 6219,
  "\u2581\u795e\u5b97": 6220,
  "\u6709\u4e00\u4e2a": 6221,
  "\u2581c\u01b0\u1ee1i": 6222,
  "\u60f3\u5fc5": 6223,
  "\u81ea\u5df2": 6224,
  "\u8fd8\u8bf7": 6225,
  "\u2581g\u1ed1i": 6226,
  "\u541e\u566c\u7956\u7b26": 6227,
  "\u7b11\u58f0": 6228,
  "\u96be\u5f97": 6229,
  "Ng\u0169": 6230,
  "\u5230\u6700\u540e": 6231,
  "\u2581m\u1ea1i": 6232,
  "\u2581Di\u1ec5n": 6233,
  "\u2581Ph\u1ea1m": 6234,
  "\u4fe1\u4efb": 6235,
  "\u6ed4\u5929": 6236,
  "\u7684\u7a7a\u95f4": 6237,
  "\u7684\u9762": 6238,
  "\u5730\u9762\u4e0a": 6239,
  "\u2581b\u00f9a": 6240,
  "\u56fd\u7684": 6241,
  "\u2581\u81f3\u4e8e": 6242,
  "\u2581d\u1ed1i": 6243,
  "\u2581Di\u00ean": 6244,
  "\u2581\u89c1": 6245,
  "\u653b\u52bf": 6246,
  "\u2581T\u00e0": 6247,
  "\u7684\u6ce2\u52a8": 6248,
  "\u771f\u7684\u662f": 6249,
  "\u4f55\u5904": 6250,
  "\u6012\u543c": 6251,
  "\u6240\u8bf4": 6252,
  "\u89c4\u5219": 6253,
  "\u8fd1\u4e4e": 6254,
  "\u2581h\u1ec9": 6255,
  "\u6240\u6709\u4eba\u7684": 6256,
  "\u4ed6\u548c": 6257,
  "\u4f20\u97f3": 6258,
  "\u66b4\u9732": 6259,
  "\u738b\u7237": 6260,
  "\u2581\u60f3\u5230": 6261,
  "\u661f\u7a7a": 6262,
  "\u2581\u1ea3i": 6263,
  "\u2581B\u00e2n": 6264,
  "\u2581ho\u1ea1i": 6265,
  "\u2581Chuy\u1ebft": 6266,
  "\u2581\u7b49": 6267,
  "\u4e0d\u6b7b": 6268,
  "\u4e5f\u88ab": 6269,
  "\u5149\u662f": 6270,
  "\u5386\u53f2": 6271,
  "\u5f97\u5f88": 6272,
  "\u770b\u7684": 6273,
  "\u90fd\u4e0d\u4f1a": 6274,
  "\u2581t\u1ea5c": 6275,
  "\u56de\u8fc7\u795e\u6765": 6276,
  "\u6781\u7aef": 6277,
  "Cho": 6278,
  "\u4e5f\u53ea\u662f": 6279,
  "\u60ca\u547c": 6280,
  "\u90c1\u95f7": 6281,
  "\u75af\u72c2\u7684": 6282,
  "\u2581tri": 6283,
  "kh": 6284,
  "\u5077\u5077": 6285,
  "\u5bc2\u706d": 6286,
  "\u9a84\u50b2": 6287,
  "\u4e5f\u4e0d\u53ef\u80fd": 6288,
  "\u4ea4\u6d41": 6289,
  "\u5723\u540e": 6290,
  "\u5f53\u4e0b": 6291,
  "\u6d41\u5149": 6292,
  "\u7d2b\u8272": 6293,
  "D\u01b0\u01a1ng": 6294,
  "\u2581gi\u00e3y": 6295,
  "\u2581phim": 6296,
  "\u4e0d\u4e0b": 6297,
  "\u4ed6\u4fbf": 6298,
  "\u7b97\u4e86": 6299,
  "\u8ddf\u5728": 6300,
  "\u8ff7\u79bb": 6301,
  "\u2581\u539f\u672c": 6302,
  "\u2581r\u1ea3nh": 6303,
  "\u1ed1m": 6304,
  "\u4e0a\u4eba": 6305,
  "\u589e\u52a0": 6306,
  "\u5938\u7236": 6307,
  "\u4f34\u968f\u7740": 6308,
  "\u6765\u5f97\u53ca": 6309,
  "\u2581\u01b0": 6310,
  "\u54ea\u4e2a": 6311,
  "\u5546\u884c": 6312,
  "\u884c\u52a8": 6313,
  "\u9ad8\u7ea7": 6314,
  "\u82e5\u6709\u6240\u601d": 6315,
  "\u2581Khoa": 6316,
  "\u2581X\u01b0\u01a1ng": 6317,
  "\u4e3e\u52a8": 6318,
  "\u603b\u662f": 6319,
  "\u9601\u8001": 6320,
  "\u4e2d\u5e74\u4eba": 6321,
  "\u7476\u6c60\u4ed9\u5b50": 6322,
  "\u3011,": 6323,
  "\u7684\u4e0b": 6324,
  "\u773c\u4e0b": 6325,
  "\u60f3\u5230\u4e86": 6326,
  "\u2581Gi\u1ea3n": 6327,
  "\u2581Li\u00eau": 6328,
  "\u2581ng\u1ee3i": 6329,
  "\u5373\u4f7f": 6330,
  "\u5468\u56ed": 6331,
  "\u7684\u597d": 6332,
  "\u2581Th\u00e2m": 6333,
  "\u2581\u5f90": 6334,
  "\u4e13\u95e8": 6335,
  "\u6211\u5728": 6336,
  "\u70b8\u5f00": 6337,
  "\u8033\u8fb9": 6338,
  "\u4fee\u4ed9\u754c": 6339,
  "\u666e\u901a\u7684": 6340,
  "\u80af\u5b9a\u662f": 6341,
  "\u2581th\u00e1o": 6342,
  "\u5e72\u8106": 6343,
  "\u9635\u9635": 6344,
  "\u2581ng\u1eaft": 6345,
  "\u5bb3\u6015": 6346,
  "\u5c40\u9762": 6347,
  "\u65e0\u91cf": 6348,
  "\u5267\u70c8": 6349,
  "\u2581t\u00fay": 6350,
  "\u7834\u574f": 6351,
  "\u2581t\u01a1": 6352,
  "\u8fc7\u53bb\u4e86": 6353,
  "\u2581s\u00e1o": 6354,
  "\u75b2\u60eb": 6355,
  "\u2581t\u1eedu": 6356,
  "\u7ba1\u4e8b": 6357,
  "\u8bb0\u8f7d": 6358,
  "\u2581ti\u1ec1m": 6359,
  "\u2581nh\u00e1nh": 6360,
  "\u533a\u522b": 6361,
  "\u5bab\u6bbf": 6362,
  "\u6536\u62fe": 6363,
  "\u2581B\u1ed3": 6364,
  "\u2581c\u00e3i": 6365,
  "\u2581v\u0103ng": 6366,
  "\u6d3e\u4eba": 6367,
  "\u80f8\u819b": 6368,
  "\u4e5f\u53ea\u6709": 6369,
  "\u9762\u5bf9\u7740": 6370,
  "\u2581ph\u1ee5ng": 6371,
  "\u522b\u8bf4": 6372,
  "\u6212\u6307": 6373,
  "\u2581l\u00f4": 6374,
  "\u2581n\u1ea5p": 6375,
  "\u2581xao": 6376,
  "\u2581ch\u00eanh": 6377,
  "\u4e2d\u5dde": 6378,
  "\u4e92\u76f8": 6379,
  "\u6ca1\u529e\u6cd5": 6380,
  "\u2581r\u1ea1p": 6381,
  "\u2581v\u00e3n": 6382,
  "\u660e\u6708": 6383,
  "\u2581\u671b\u7740": 6384,
  "\u2581\u674e\u50b2\u5929": 6385,
  "\u6bcf\u5929": 6386,
  "\u7684\u6c34": 6387,
  "\u4e86\u4e0a\u53bb": 6388,
  "\u5fcd\u4e0d\u4f4f\u7684": 6389,
  "Nh\u1eefng": 6390,
  "\u2581\u4e03": 6391,
  "\u6211\u53bb": 6392,
  "\u664b\u5347": 6393,
  "\u7684\u4e16\u754c": 6394,
  "\u7406\u7531": 6395,
  "\u7684\u7075\u9b42": 6396,
  "\u76d8\u9f99\u57ce": 6397,
  "\u2581n\u1ea5y": 6398,
  "\u58f0\u54cd": 6399,
  "\u7389\u7b80": 6400,
  "\u2581v\u1ea1ch": 6401,
  "Tr\u01b0\u01a1ng": 6402,
  "\u66b4\u63a0": 6403,
  "\u2581\u4e00\u9053": 6404,
  "\u4e5f\u7b97\u662f": 6405,
  "\u7684\u6797\u52a8": 6406,
  "\u6de1\u6de1\u4e00\u7b11": 6407,
  "\u4f20\u5947": 6408,
  "\u5175\u5668": 6409,
  "\u2581nh\u0103n": 6410,
  "\u4ecd\u65e7": 6411,
  "\u4f20\u95fb": 6412,
  "\u96be\u4e0d\u6210": 6413,
  "\u2581\u8d3a\u7075\u5ddd": 6414,
  "\u2581Ch\u01b0\u1edbc": 6415,
  "\u540c\u610f": 6416,
  "\u7ed9\u4eba": 6417,
  "\u2581hi\u1ebfu": 6418,
  "\u2581k\u00ecnh": 6419,
  "\u4e24\u53ea": 6420,
  "\u53eb\u505a": 6421,
  "\u754f\u60e7": 6422,
  "\u8bd5\u63a2": 6423,
  "\u9ad8\u9ad8": 6424,
  "\u6211\u6765": 6425,
  "\u672c\u5c31": 6426,
  "\u2581\u5929\u5143": 6427,
  "\u7684\u60c5\u7eea": 6428,
  "\u2581nh\u1eadt": 6429,
  "\u2581phi\u00ean": 6430,
  "\u6697\u81ea": 6431,
  "\u795e\u5251": 6432,
  "?\u300d\u300c": 6433,
  "\u662f\u4e00\u79cd": 6434,
  "\u95e8\u5f1f\u5b50": 6435,
  "\u2581Th\u1ecd": 6436,
  "\u6123\u4e86\u4e00\u4e0b": 6437,
  "\u2581hi\u1ec1n": 6438,
  "\u590f\u5bb6": 6439,
  "\u5c0f\u697c": 6440,
  "\u9020\u6210": 6441,
  "\u2581tr\u1ebbo": 6442,
  "\u53e4\u5723": 6443,
  "\u5c5e\u6027": 6444,
  "\u2581\u0110a": 6445,
  "\u2581Hay": 6446,
  "\u5982\u679c\u4e0d\u662f": 6447,
  "\u5bf9\u6297": 6448,
  "\u9ed1\u767d": 6449,
  "\u4e8c\u5e08\u5144": 6450,
  "\u5c06\u81ea\u5df1": 6451,
  "\u5fae\u5fae\u70b9\u5934": 6452,
  "\u558a\u9053": 6453,
  "\u5f80\u5f80": 6454,
  "\u8d70\u5427": 6455,
  "\u4e00\u5c42": 6456,
  "\u7531\u4e8e": 6457,
  "\u8361\u8361": 6458,
  "\u8bd5\u8bd5": 6459,
  "\u9662\u5b50": 6460,
  "\u7aef\u6728\u5bd2": 6461,
  "\u90fd\u77e5\u9053": 6462,
  "\u5583\u5583\u81ea\u8bed": 6463,
  "\u2581nh\u01b0\u1ee3": 6464,
  "\u5750\u4e0b": 6465,
  "\u6536\u655b": 6466,
  "\u4e0a\u4e0b": 6467,
  "\u7684\u6700": 6468,
  "\u2581kho\u00e1ng": 6469,
  "\u8fd9\u6761": 6470,
  "\u2581n\u1ea1": 6471,
  "\u542c\u8bf4\u8fc7": 6472,
  "\u76ae\u76ae": 6473,
  "\u7684\u5c31\u662f": 6474,
  "X\u00edch": 6475,
  "\u90fd\u4e0d\u77e5\u9053": 6476,
  "\u2581\u5b8b": 6477,
  "\u6df1\u9083": 6478,
  "\u768e\u5154": 6479,
  "\u4e5f\u53ea\u80fd": 6480,
  "\u4ed6\u73b0\u5728": 6481,
  "\u2581T\u00e1n": 6482,
  "\u2581h\u1eb9p": 6483,
  "\u8fd8\u5f97": 6484,
  "Ng\u1ecdc": 6485,
  "\u2581\u539f\u6765": 6486,
  "\u4e0d\u5f31": 6487,
  "\u610f\u5fd7": 6488,
  "\u2581b\u1ea9n": 6489,
  "\u2581\u0111\u1eb3ng": 6490,
  "\u4ed6\u4e00": 6491,
  "\u5149\u5b97": 6492,
  "\u4ed6\u6ca1\u6709": 6493,
  "\u2581M\u01b0u": 6494,
  "\u4e00\u51fa": 6495,
  "\u4e0d\u89c9": 6496,
  "\u524d\u7684": 6497,
  "\u773c\u77b3": 6498,
  "\u2581t\u00e1t": 6499,
  "\u4f55\u7b49": 6500,
  "\u2581t\u00ea": 6501,
  "\u4f3c\u4e4e\u662f": 6502,
  "\u2581\u0111\u00e3ng": 6503,
  "\u4e00\u65c1": 6504,
  "\u674e\u50b2": 6505,
  "\u7684\u771f": 6506,
  "\u901a\u5929": 6507,
  "\u2581c\u00fa": 6508,
  "\u2581\u9f50": 6509,
  "\u2581m\u00e2u": 6510,
  "\u2581B\u1ea3ng": 6511,
  "\u6765\u5386": 6512,
  "\u6e21\u8fc7": 6513,
  "\u2581r\u1ee7": 6514,
  "\u65e0\u53ef": 6515,
  "\u4e5f\u4e0d\u77e5": 6516,
  "\u2581\u1eeb": 6517,
  "\u4e00\u8d9f": 6518,
  "\u4e0d\u4fe1": 6519,
  "\u4f46\u8fd9": 6520,
  "\u5927\u58f0": 6521,
  "\u2581D\u00e3": 6522,
  "\u2581H\u00f4": 6523,
  "\u2581\u5ffd\u7136": 6524,
  "\u2581kh\u1ed1n": 6525,
  "\u4e0a\u7a7a": 6526,
  "\u56de\u5e94": 6527,
  "\u2581khoanh": 6528,
  "\u51fa\u4e00\u4e2a": 6529,
  "\u2581Ch\u01b0": 6530,
  "\u2581g\u1eady": 6531,
  "\u53ea\u4f1a": 6532,
  "\u8fd8\u60f3": 6533,
  "\u5f88\u5feb\u5c31": 6534,
  "\u2581c\u1ed1c": 6535,
  "\u2581ghen": 6536,
  "\u5f71\u5b50": 6537,
  "\u6ce8\u89c6": 6538,
  "\u7a0d\u5fae": 6539,
  "\u4e4b\u524d\u7684": 6540,
  "Th\u1eadt": 6541,
  "\u5357\u65b9": 6542,
  "\u592a\u5927": 6543,
  "\u5ba2\u6808": 6544,
  "\u76ae\u80a4": 6545,
  "\u9752\u4e91": 6546,
  "\u51fa\u4e00\u9053": 6547,
  "\u2581m\u00e0i": 6548,
  "\u7edf\u9886": 6549,
  "\u5230\u73b0\u5728": 6550,
  "\u5c82\u4e0d\u662f": 6551,
  "\u2581B\u1ed7ng": 6552,
  "\u671d\u7740\u59dc\u601d\u5357": 6553,
  "\u5f00\u8f9f": 6554,
  "\u8574\u85cf\u7740": 6555,
  "\u2581mi\u1ebfu": 6556,
  "\u6df1\u6e0a": 6557,
  "\u533a\u57df": 6558,
  "\u7684\u8eab\u8eaf": 6559,
  "\u90fd\u4e0d\u6562": 6560,
  "\u2581s\u00f3c": 6561,
  "\u2581b\u00e0ng": 6562,
  "\u2581\u0110oan": 6563,
  "',": 6564,
  "\u4e00\u7fa4": 6565,
  "\u5730\u72f1": 6566,
  "\u6267\u6cd5": 6567,
  "\u62b1\u62f3": 6568,
  "\u7ed9\u5979": 6569,
  "\u8d6b\u7136": 6570,
  "\u2581\u5176\u5b9e": 6571,
  "\u53d1\u751f\u4e86": 6572,
  "\u2581Tr\u1ea7m": 6573,
  "\u2581th\u1ee5c": 6574,
  "\u56db\u5904": 6575,
  "\u6628\u5929": 6576,
  "\u5e73\u65e5": 6577,
  "\u68ee\u6797": 6578,
  "\u865a\u5f31": 6579,
  "\u8fd4\u56de": 6580,
  "\u2581B\u00e0": 6581,
  "\u5927\u957f\u8001": 6582,
  "\u7684\u5730\u6b65": 6583,
  "Dung": 6584,
  "\u2581c\u1eb7p": 6585,
  "\u2581h\u00f4ng": 6586,
  "\u4e3b\u8981": 6587,
  "\u5728\u573a": 6588,
  "\u5f15\u8d77": 6589,
  "\u5ffd\u7684": 6590,
  "\u8fb9\u7684": 6591,
  "\u2581qu\u1ef9": 6592,
  "\u2581dong": 6593,
  "\u2581n\u00f4ng": 6594,
  "\u5c31\u89c1": 6595,
  "\u63a8\u5f00": 6596,
  "\u2581n\u1ea1p": 6597,
  "\u2581\u0111\u1ebfm": 6598,
  "\u2581n\u1eafng": 6599,
  "\u2581bi\u1ebfng": 6600,
  "\u0169a": 6601,
  "\u4e03\u516b": 6602,
  "\u5730\u6b65": 6603,
  "Kim": 6604,
  "\u2581\u6b22\u6b22": 6605,
  "\u2581\u1ee7ng": 6606,
  "\u2581ng\u1eddi": 6607,
  "\u2581Ngh\u0129a": 6608,
  "\u53e4\u8001": 6609,
  "\u65f6\u7684": 6610,
  "\u76b1\u4e86": 6611,
  "\u4e00\u4e2a\u6708": 6612,
  "\u5267\u70c8\u7684": 6613,
  "\u2581Suy": 6614,
  "\u2581th\u1ebb": 6615,
  "\u8fd9\u91cc\u7684": 6616,
  "\u5e74\u9f84": 6617,
  "\u2581\u8bf4\u5b8c": 6618,
  "\u2581H\u1ea1ng": 6619,
  "\u2581hu\u1ea5n": 6620,
  "\u5411\u6765": 6621,
  "\u2581l\u1ecdt": 6622,
  "\u4eb2\u773c": 6623,
  "\u7b11\u7b11": 6624,
  "\u88ab\u6253": 6625,
  "\u4e86\u4e00\u756a": 6626,
  "\u6700\u597d\u7684": 6627,
  "\u2581b\u00e9o": 6628,
  "\u2581m\u1eafc": 6629,
  "\u534a\u5e74": 6630,
  "Y\u1ebfn": 6631,
  "\u82cf\u5b50\u5b89": 6632,
  "\u2581b\u00e1m": 6633,
  "\u2581\u0111\u00f3i": 6634,
  "\u505c\u6b62": 6635,
  "\u5403\u4e86": 6636,
  "\u5b50\u4e0a": 6637,
  "\u7f2d\u7ed5": 6638,
  "\u4ec0\u4e48\u4e8b": 6639,
  "\u540c\u6837\u662f": 6640,
  "\u4e00\u6bb5\u65f6\u95f4": 6641,
  "\u6e05\u9192": 6642,
  "\u7684\u5bb6\u4f19": 6643,
  "\u2581\u0111\u1ed1c": 6644,
  "\u8427\u5bb6": 6645,
  "\u7684\u4e00\u4e9b": 6646,
  "\u7684\u5a01\u529b": 6647,
  "\u7ad9\u4e86\u8d77\u6765": 6648,
  "\u2581Ng\u00e0i": 6649,
  "\u2581Ni\u1ec7m": 6650,
  "\u4e91\u7f8a": 6651,
  "\u5360\u636e": 6652,
  "\u548c\u4f60": 6653,
  "\u683c\u5916": 6654,
  "\u8089\u4f53": 6655,
  "\u8fd9\u5c31": 6656,
  "\u60f3\u8d77\u4e86": 6657,
  "\u635f\u5931": 6658,
  "\u652f\u6301": 6659,
  "\u79d8\u6cd5": 6660,
  "\u6216\u8005\u8bf4": 6661,
  "\u2581ng\u1ecdt": 6662,
  "\u534a\u70b9": 6663,
  "\u767e\u59d3": 6664,
  "\u8a00\u8bed": 6665,
  "\u963b\u62e6": 6666,
  "\u2581Ph\u00e2n": 6667,
  "\u2581s\u1ee7ng": 6668,
  "\u2581tr\u1ecdn": 6669,
  "\u540d\u7684": 6670,
  "\u626c\u8d77": 6671,
  "\u7687\u5bab": 6672,
  "\u2581\u0111e": 6673,
  "\u2581\u0111\u1eafm": 6674,
  "\u2581nhao": 6675,
  "\u2581t\u01b0\u1edbc": 6676,
  "\u5730\u77aa": 6677,
  "\u5fae\u772f": 6678,
  "\u4e00\u53e5\u8bdd": 6679,
  "\u5269\u4e0b\u7684": 6680,
  "\u2581nh\u00e0o": 6681,
  "\u7ba1\u5bb6": 6682,
  "\u2581\u664b\u738b": 6683,
  "\u600e\u4e48\u4e86": 6684,
  "\u610f\u5473\u7740": 6685,
  "\u2581b\u1ecdt": 6686,
  "\u2581m\u1ed3m": 6687,
  "\u2581th\u1eaft": 6688,
  "\u4e24\u5927": 6689,
  "\u6700\u540e\u7684": 6690,
  "\u2581Ph\u00f3": 6691,
  "\u2581T\u1ee9c": 6692,
  "\u2581khi\u1ebfu": 6693,
  "\u4e09\u767e": 6694,
  "\u6d6a\u8d39": 6695,
  "\u79bb\u706b": 6696,
  "\u5fc5\u987b\u8981": 6697,
  "\u666e\u901a\u4eba": 6698,
  "\u2581t\u1eafm": 6699,
  "\u53cd\u6297": 6700,
  "\u53f9\u9053": 6701,
  "\u540e\u6094": 6702,
  "\u5723\u5973": 6703,
  "\u591a\u7684": 6704,
  "\u5f3a\u6a2a": 6705,
  "\u7956\u5e08": 6706,
  "\u4e00\u65b9": 6707,
  "\u89d2\u843d": 6708,
  "\u2581d\u00e3y": 6709,
  "\u2581x\u00f3t": 6710,
  "\u4e09\u5343": 6711,
  "\u604d\u7136": 6712,
  "\u6b3a\u8d1f": 6713,
  "\u73b0\u5b9e": 6714,
  "\u2581\u6b64\u523b": 6715,
  "\u2581Ch\u01b0a": 6716,
  "\u2581V\u0129nh": 6717,
  "\u2581th\u1eb1ng": 6718,
  "\u4e5f\u7b97": 6719,
  "\u82cd\u8001": 6720,
  "\u2581x\u00e1": 6721,
  "\u5c0f\u4e16\u754c": 6722,
  "\u8fd9\u4e00\u5207": 6723,
  "\u4e00\u638c": 6724,
  "\u5408\u9002": 6725,
  "\u5b9a\u7684": 6726,
  "\u2581\u674e\u51e1": 6727,
  "\u7684\u4e00\u5207": 6728,
  "\u2581Thai": 6729,
  "\u2581nh\u00e9t": 6730,
  "\u4e39\u7530": 6731,
  "\u6bcf\u4e00\u4e2a": 6732,
  "\u90fd\u6709\u4e9b": 6733,
  "\u4f60\u53bb": 6734,
  "\u5bd2\u98df": 6735,
  "\u795e\u5c0a": 6736,
  "\u7d27\u63e1": 6737,
  "Hoan": 6738,
  "\u2581t\u0103m": 6739,
  "\u4f3c\u662f": 6740,
  "\u2581n\u00f4": 6741,
  "\u2581Khai": 6742,
  "\u4e0d\u5927": 6743,
  "\u2581th\u1ed1i": 6744,
  "\u4eba\u9a6c": 6745,
  "\u5173\u6ce8": 6746,
  "\u5bc2\u9759": 6747,
  "\u2581\u53ea\u8981": 6748,
  "\u53ea\u89c9\u5f97": 6749,
  "\u2581T\u0103ng": 6750,
  "\u4fdd\u8bc1": 6751,
  "\u5403\u996d": 6752,
  "\u652f\u6491": 6753,
  "\u795e\u5668": 6754,
  "\u90fd\u5f88": 6755,
  "\u5982\u6b64\u7684": 6756,
  "\u6211\u73b0\u5728": 6757,
  "\u6ce8\u610f\u5230": 6758,
  "\u2581m\u00e8o": 6759,
  "\u51e4\u51f0": 6760,
  "\u53f8\u7a7a": 6761,
  "\u65b9\u4fbf": 6762,
  "\u6c34\u57ce": 6763,
  "\u9762\u9732": 6764,
  "\u5230\u5e95\u662f": 6765,
  "\u2581\u0111\u00e1o": 6766,
  "\u2581\u738b\u626c": 6767,
  "\u4e0d\u6127\u662f": 6768,
  "\u7684\u9635\u6cd5": 6769,
  "\u770b\u4e0d\u5230": 6770,
  "\u82df\u5bd2\u98df": 6771,
  "\u795e\u5b98": 6772,
  "\u7eb5\u6a2a": 6773,
  "\u6797\u52a8\u4e5f\u662f": 6774,
  "Phong": 6775,
  "\u2581\u592a": 6776,
  "\u4eba\u5fc3": 6777,
  "\u5634\u5df4": 6778,
  "\u60f3\u60f3": 6779,
  "\u81f3\u5b9d": 6780,
  "\u4e86\u51e0\u5206": 6781,
  "\u53f8\u5f92\u6e9f": 6782,
  "\u5728\u4ed6\u4eec": 6783,
  "\u2581M\u1eaft": 6784,
  "\u6c49\u5b50": 6785,
  "\u6f02\u4eae": 6786,
  "\u7d2b\u598d": 6787,
  "\u2581K\u1ef7": 6788,
  "\u2581d\u00e8": 6789,
  "\u4f46\u662f\u5374": 6790,
  "\u7684\u7075\u529b": 6791,
  "\u2581nh\u1ea1o": 6792,
  "\u4e0a\u5b98": 6793,
  "\u6380\u8d77": 6794,
  "\u67d0\u4e9b": 6795,
  "\u7d2b\u9704": 6796,
  "\u8d70\u7684": 6797,
  "\u679c\u7136\u662f": 6798,
  "\u610f\u6599": 6799,
  "\u6269\u6563": 6800,
  "\u62b5\u8fbe": 6801,
  "\u6f2b\u5929": 6802,
  "\u9738\u9053": 6803,
  "\u8fd9\u4e48\u591a\u5e74": 6804,
  "\u4e4b\u9053": 6805,
  "\u5e1d\u541b": 6806,
  "\u665a\u4e0a": 6807,
  "\u6cb8\u817e": 6808,
  "\u7ec6\u5fae": 6809,
  "\u906e\u63a9": 6810,
  "B\u1ea1ch": 6811,
  "\u65e0\u654c": 6812,
  "\u5bf9\u81ea\u5df1": 6813,
  "\u5931\u53bb": 6814,
  "\u7528\u529b": 6815,
  "\u7684\u77f3": 6816,
  "\u95ea\u70c1\u7740": 6817,
  "\u4e0b\u5df4": 6818,
  "\u516b\u65b9": 6819,
  "\u5996\u8c82": 6820,
  "\u7ea2\u7684": 6821,
  "\u53ea\u5269\u4e0b": 6822,
  "\u56de\u5230\u4e86": 6823,
  "\u7684\u5143\u529b": 6824,
  "\u2581th\u00fay": 6825,
  "\u60ac\u6d6e": 6826,
  "\u2581B\u1ecb": 6827,
  "\u6211\u5df2\u7ecf": 6828,
  "\u7fbd\u795e\u5b97": 6829,
  "\u2581to\u00e1i": 6830,
  "\u2581khung": 6831,
  "\u5efa\u7b51": 6832,
  "\u61d2\u5f97": 6833,
  "\u6ca1\u80fd": 6834,
  "\u8fde\u7eed": 6835,
  "\u6d85\u69c3\u5883": 6836,
  "Th\u1ea1ch": 6837,
  "T\u1eeb": 6838,
  "\u4e7e\u5143": 6839,
  "\u5996\u5e05": 6840,
  "\u662f\u554a": 6841,
  "\u6781\u5927": 6842,
  "\u7075\u517d": 6843,
  "\u7126\u6025": 6844,
  "\u7684\u540d": 6845,
  "\u4efb\u4f55\u4eba": 6846,
  "\u4e00\u60ca": 6847,
  "\u573a\u666f": 6848,
  "\u672a\u66fe": 6849,
  "\u6df7\u5143": 6850,
  "\u89e3\u70e6": 6851,
  "\u62e5\u6709\u7740": 6852,
  "\u4e00\u534a": 6853,
  "\u6469\u7f57": 6854,
  "\u8c01\u80fd": 6855,
  "\u2581h\u1ea7m": 6856,
  "\u2581nh\u00edch": 6857,
  "\u672c\u738b": 6858,
  "\u2581\u54c8\u54c8": 6859,
  "\u2581tuy\u1ec3n": 6860,
  "\u5fc3\u5e95": 6861,
  "\u5212\u8fc7": 6862,
  "\u5b50\u8572": 6863,
  "\u5fc3\u810f": 6864,
  "\u2581x\u00e0": 6865,
  "\u2581\u5b50\u5b89": 6866,
  "\u4e0d\u4e00\u6837": 6867,
  "\u7684\u5883\u754c": 6868,
  "\u2581c\u00e0n": 6869,
  "\u7684\u60c5\u51b5\u4e0b": 6870,
  "\u2581ng\u1eeda": 6871,
  "\u2581nu\u1ed1i": 6872,
  "\u538b\u8feb": 6873,
  "\u57ce\u5899": 6874,
  "\u5c31\u884c": 6875,
  "\u6b23\u559c": 6876,
  "\u806a\u660e": 6877,
  "\u5341\u4e07": 6878,
  "\u5bf9\u4f60": 6879,
  "\u5c31\u5c06": 6880,
  "\u738b\u6e0a": 6881,
  "\u7684\u706b": 6882,
  "\u7ee7\u627f": 6883,
  "\u8840\u8272": 6884,
  "\u9634\u51b7": 6885,
  "\u6210\u4e3a\u4e86": 6886,
  "\u2581T\u1ed5ng": 6887,
  "\u2581s\u00e0ng": 6888,
  "\u2581\u55ef": 6889,
  "\u8fdb\u6b65": 6890,
  "\u2581\u521a\u624d": 6891,
  "\u2581\u0111inh": 6892,
  "\u6559\u8bad": 6893,
  "\u8d2d\u4e70": 6894,
  "\u2581d\u01b0a": 6895,
  "\u592a\u4e0a\u957f\u8001": 6896,
  "\u2581tr\u1ea1ch": 6897,
  "H\u1ea1": 6898,
  "\u4e1c\u7384": 6899,
  "\u63a9\u9970": 6900,
  "\u56de\u7b54\u9053": 6901,
  "\u6d88\u5931\u5728": 6902,
  "\u2581T\u1eedu": 6903,
  "\u2581r\u1ed9n": 6904,
  "\u9732\u51fa\u4e00\u4e1d": 6905,
  "\u2581thu\u1eabn": 6906,
  "\u4e4b\u8f88": 6907,
  "\u2581\u82cf\u5b50": 6908,
  "\u624b\u638c\u4e00": 6909,
  "\u4e0d\u77e5\u4e3a\u4f55": 6910,
  "\u7c7b\u4f3c": 6911,
  "\u9f50\u9f50": 6912,
  "\u5a46\u5a46": 6913,
  "\u5bd2\u6c14": 6914,
  "\u70bc\u4f53": 6915,
  "\u4e5f\u90fd\u662f": 6916,
  "\u5168\u90fd\u662f": 6917,
  "\u2581ki\u1ec1m": 6918,
  "\u2581ng\u1eedi": 6919,
  "\u1ebbm": 6920,
  "\u4e00\u67c4": 6921,
  "\u5251\u8292": 6922,
  "\u2581C\u1ea9m": 6923,
  "is": 6924,
  "\u54ea\u6709": 6925,
  "\u5927\u6210": 6926,
  "\u795e\u738b": 6927,
  "\u8fd9\u540d": 6928,
  "\u7684\u4fee\u70bc": 6929,
  "\u2581Ch\u00fac": 6930,
  "\u2581Gi\u1eefa": 6931,
  "\u2581s\u01b0\u1edbng": 6932,
  "\u2581\u6731": 6933,
  "\u51b2\u7740": 6934,
  "\u5c71\u5c71": 6935,
  "\u65b9\u5706": 6936,
  "\u9519\u6115": 6937,
  "\u51fa\u4e00\u80a1": 6938,
  "\u77ed\u65f6\u95f4": 6939,
  "\u2581\u9633": 6940,
  "\u5b87\u5b99": 6941,
  "\u795e\u96f7": 6942,
  "\u7cfb\u7edf": 6943,
  "\u9057\u8ff9": 6944,
  "\u2581Hi\u1ec3n": 6945,
  "\u2581\u5468": 6946,
  "\u95ea\u73b0": 6947,
  "\u2581T\u1eabn": 6948,
  "\u6d88\u5931\u4e0d\u89c1": 6949,
  "\u2581kho\u1ea3n": 6950,
  "\u4e2d\u54c1": 6951,
  "\u53f8\u9a6c": 6952,
  "\u56de\u5fc6": 6953,
  "\u5e2e\u6211": 6954,
  "\u59da\u8001\u5934": 6955,
  "\u7f57\u5929\u4f1a": 6956,
  "\u2581nh\u1ea1y": 6957,
  "\u2581Phi\u00ean": 6958,
  "\u2581ng\u01b0\u1edbc": 6959,
  "\u53c2\u609f": 6960,
  "\u6b66\u5668": 6961,
  "\u73a9\u610f": 6962,
  "\u7ed3\u754c": 6963,
  "\u2581H\u1ed9": 6964,
  "\u8fdb\u5165\u4e86": 6965,
  "\u2581c\u1eebu": 6966,
  "Thu\u1ea7n": 6967,
  "\u2581nh\u1ea7m": 6968,
  "\u2581tang": 6969,
  "\u5730\u6bcd": 6970,
  "\u5c71\u4e0a": 6971,
  "H\u1ecfa": 6972,
  "\u5728\u81ea\u5df1": 6973,
  "\u8f69\u8f95\u7834": 6974,
  "\u51fa\u95e8": 6975,
  "\u5802\u5802": 6976,
  "\u2581l\u1ed9t": 6977,
  "\u2581B\u00e0ng": 6978,
  "\u2581K\u00ecnh": 6979,
  "\u51b7\u9759": 6980,
  "\u53f8\u66f9": 6981,
  "\u672c\u80fd": 6982,
  "\u2581\u6b63": 6983,
  "\u4ed6\u8981": 6984,
  "\u4ee5\u5f80": 6985,
  "\u60ac\u7a7a": 6986,
  "\u6b7b\u53bb": 6987,
  "\u7edd\u5bf9\u4e0d\u4f1a": 6988,
  "\u62ff\u5230": 6989,
  "\u6311\u7709": 6990,
  "Th\u1ebf": 6991,
  "\u2581gao": 6992,
  "\u2581Vong": 6993,
  "\u5634\u91cc": 6994,
  "\u6d53\u6d53": 6995,
  "\u2581\u0110\u00e0i": 6996,
  "\u4e00\u65cf": 6997,
  "\u4e89\u593a": 6998,
  "\u5bb6\u4eba": 6999,
  "\u62ac\u624b": 7000,
  "\u9053\u5fc3": 7001,
  "\u7684\u53d8\u5316": 7002,
  "\u90a3\u65f6\u5019": 7003,
  "\u2581g\u00e3i": 7004,
  "\u2581r\u1ed7i": 7005,
  "\u4e25\u8083": 7006,
  "\u6cd5\u9635": 7007,
  "\u7684\u9b54": 7008,
  "\u793a\u610f": 7009,
  "\u2581tr\u1ee9ng": 7010,
  ",\u300c": 7011,
  "\u4e00\u6218": 7012,
  "\u7ec6\u7ec6": 7013,
  "\u7ef4\u6301": 7014,
  "\u4e86\u4e0a\u6765": 7015,
  "\u8fd9\u4e2a\u5973\u4eba": 7016,
  "\u201d\u3002": 7017,
  "\u4e0b\u9762": 7018,
  "\u57fa\u7840": 7019,
  "\u5929\u5730\u95f4": 7020,
  "\u4e07\u4e00": 7021,
  "\u5413\u5f97": 7022,
  "\u7236\u6bcd": 7023,
  "\u5927\u591a\u6570": 7024,
  "\u2581kh\u00e9p": 7025,
  "\u3002......": 7026,
  "\u542c\u95fb": 7027,
  "\u590f\u4faf": 7028,
  "\u5bf9\u6b64": 7029,
  "\u2581n\u1ea5u": 7030,
  "\u77e5\u9053\u81ea\u5df1": 7031,
  "\u57ce\u95e8": 7032,
  "\u5c71\u541b": 7033,
  "\u5e7d\u6697": 7034,
  "\u7740\u5b9e": 7035,
  "\u2581V\u1ee5": 7036,
  "\u4f8d\u5973": 7037,
  "\u6d8c\u73b0": 7038,
  "\u7384\u4ed9": 7039,
  "\u4e0d\u613f\u610f": 7040,
  "\u2581kh\u1ebf": 7041,
  "\u51fb\u8d25": 7042,
  "\u8d76\u5fd9": 7043,
  "\u53ef\u4ee5\u8bf4": 7044,
  "\u7684\u65b9\u6cd5": 7045,
  "\u2581r\u1ed1ng": 7046,
  "\u4f46\u6211": 7047,
  "\u772f\u772f": 7048,
  "\u627e\u4e0d\u5230": 7049,
  "\u2581\u751f": 7050,
  "\u4e94\u8272": 7051,
  "\u4efb\u7531": 7052,
  "\u5e95\u4e0b": 7053,
  "\u950b\u8292": 7054,
  "\u2581K\u1ebf": 7055,
  "\u6240\u4ee5\u4ed6": 7056,
  "\u8981\u4e0d\u662f": 7057,
  "\u2581Lung": 7058,
  "\u2581v\u1ea7ng": 7059,
  "\u4e00\u811a": 7060,
  "\u4ef6\u4e8b": 7061,
  "\u5c31\u597d": 7062,
  "\u6218\u80dc": 7063,
  "\u65e0\u9650": 7064,
  "\u7b2c\u56db": 7065,
  "\u2581n\u1ed7": 7066,
  "\u4e00\u7f15": 7067,
  "\u5224\u65ad": 7068,
  "\u970e\u90a3": 7069,
  "\u60f3\u529e\u6cd5": 7070,
  "\u2581pha": 7071,
  "\u2581\u59dc\u601d\u5357\u5fc3\u4e2d": 7072,
  "\u738b\u5e9c": 7073,
  "\u89c1\u7684": 7074,
  "\u2581Ki\u1ec1u": 7075,
  "\u4e0d\u987e": 7076,
  "\u4e0e\u6211": 7077,
  "\u5f80\u5916": 7078,
  "\u6574\u6574": 7079,
  "\u5927\u773c\u775b": 7080,
  "\u2581n\u1ecbnh": 7081,
  "\u5408\u4f5c": 7082,
  "\u60a0\u60a0": 7083,
  "\u751a\u81f3\u8fde": 7084,
  "V\u1ecb": 7085,
  "\u4e4b\u4f4d": 7086,
  "\u4ed9\u57ce": 7087,
  "\u4fee\u7f57": 7088,
  "\u5f20\u62d9": 7089,
  "\u888d\u54e5": 7090,
  "Con": 7091,
  "\u00e3m": 7092,
  "\u5927\u4e8b": 7093,
  "\u5bb9\u8c8c": 7094,
  "\u63d0\u8d77": 7095,
  "\u4ee5\u4e00\u79cd": 7096,
  "\u2581h\u00e8n": 7097,
  "\u2581s\u00fang": 7098,
  "\u0110a": 7099,
  "\u4e4b\u5fc3": 7100,
  "\u4eca\u665a": 7101,
  "\u7684\u540e": 7102,
  "\u7684\u5473\u9053": 7103,
  "\u8fdc\u53e4\u79d8": 7104,
  "\u4e25\u91cd": 7105,
  "\u54ac\u7740": 7106,
  "\u57f9\u517b": 7107,
  "\u611f\u609f": 7108,
  "\u6c89\u601d": 7109,
  "\u9752\u94dc": 7110,
  "\u9f99\u65cf": 7111,
  "\u2581\u5929\u5e1d": 7112,
  "\u5a74\u5929\u5883": 7113,
  "\u4e0d\u6015": 7114,
  "\u9648\u76ae\u76ae": 7115,
  "\u2581tr\u1ec5": 7116,
  "\u2581\u7eeb\u6e05\u7af9": 7117,
  "\u2581Ch\u1ea5p": 7118,
  "\u2581Ho\u00e0i": 7119,
  "\u2581m\u1ea3ng": 7120,
  "\u2581tanh": 7121,
  "\u2581\u6b64": 7122,
  "\u601d\u8bae": 7123,
  "\u795e\u9053": 7124,
  "\u8f9b\u82e6": 7125,
  "?!\u201d": 7126,
  "Tu": 7127,
  "\u5916\u4eba": 7128,
  "\u5f97\u77e5": 7129,
  "\u7efe\u513f": 7130,
  "\u8863\u8896": 7131,
  "\u9053\u541b": 7132,
  "\u7684\u5973\u5b50": 7133,
  "\u7684\u8868\u60c5": 7134,
  "\u2581Tr\u00f9ng": 7135,
  "\u2581r\u1ed9": 7136,
  "\u6709\u4e00\u4e9b": 7137,
  "\u7684\u95ee\u9053": 7138,
  "\u773c\u7738\u4e2d": 7139,
  "\u2581Hu\u1ec7": 7140,
  "\u538b\u6291": 7141,
  "\u56de\u5bb6": 7142,
  "\u4f20\u6765\u7684": 7143,
  "\u7b2c\u4e00\u4e2a": 7144,
  "\u4ed6\u7684\u8eab\u4f53": 7145,
  "\u611f\u89c9\u5230\u4e86": 7146,
  "\u2581Thi\u1ec3m": 7147,
  "\u624d\u6709": 7148,
  "\u6eda\u6eda": 7149,
  "\u2581v\u00f2": 7150,
  "\u4e5f\u5c31\u662f\u8bf4": 7151,
  "\u795e\u5723\u4e16\u5bb6": 7152,
  "\u2581thi\u1ec7t": 7153,
  "\u2581\u5b83": 7154,
  "\u4e24\u6b21": 7155,
  "\u4e5f\u597d": 7156,
  "\u5bd2\u51b7": 7157,
  "\u65e0\u529b": 7158,
  "\u7d2b\u51e4": 7159,
  "\u2581\u0111\u1eabm": 7160,
  "\u2581ch\u00f3c": 7161,
  "\u2581Ng\u01b0\u1ee1ng": 7162,
  "\u662f\u60f3": 7163,
  "\u7d2b\u53f6": 7164,
  "H\u01a1n": 7165,
  "\u2581\u1ea4t": 7166,
  "\u2581h\u1ea5t": 7167,
  "\u2581h\u1ed1c": 7168,
  "\u4e0d\u53ef\u601d\u8bae": 7169,
  "\u2581nguy\u1ec7t": 7170,
  "\u4fee\u771f": 7171,
  "\u878d\u5165": 7172,
  "\u989d\u5934": 7173,
  "\u2581\u90a3\u4e9b": 7174,
  "\u4e5f\u6709\u4e9b": 7175,
  "\u6253\u91cf\u7740": 7176,
  "\u7b11\u772f\u772f": 7177,
  "\u2581l\u1ee5a": 7178,
  "\u51b7\u54fc\u4e00\u58f0": 7179,
  "\u2581b\u00e0nh": 7180,
  "\u4e0d\u5c0f": 7181,
  "\u516c\u4f1a": 7182,
  "\u56db\u65b9": 7183,
  "\u5bd2\u610f": 7184,
  "\u5e9f\u8bdd": 7185,
  "\u70b9\u70b9": 7186,
  "\u9762\u76f8": 7187,
  "\u8fd9\u4e2a\u4eba": 7188,
  "\u2581\u6ca1\u60f3\u5230": 7189,
  "\u7f13\u7f13\u8bf4\u9053": 7190,
  "\u2581c\u01b0\u1edbi": 7191,
  "\u2581ng\u1eabm": 7192,
  "\u52a8\u7528": 7193,
  "\u52a8\u7740": 7194,
  "\u5bb6\u91cc": 7195,
  "\u6307\u5c16": 7196,
  "\u2581\u7fbd\u7130": 7197,
  "\u5f7b\u5e95\u7684": 7198,
  "\u7ee7\u7eed\u8bf4\u9053": 7199,
  "\u5173\u5fc3": 7200,
  "\u5c0f\u4eba": 7201,
  "\u6321\u4f4f": 7202,
  "\u6cd5\u95e8": 7203,
  "\u7834\u5f00": 7204,
  "\u2581v\u1ea1t": 7205,
  "\u2581Ng\u1ea1n": 7206,
  "\u2581Tranh": 7207,
  "\u2581\u534e": 7208,
  "\u7d27\u95ed": 7209,
  "\u9760\u7740": 7210,
  "\u4e00\u77ac\u95f4": 7211,
  "\u5728\u7a7a\u4e2d": 7212,
  "\u786e\u5b9e\u662f": 7213,
  "\u7ed9\u81ea\u5df1": 7214,
  "\u6beb\u4e0d\u72b9\u8c6b": 7215,
  "\u2581H\u01b0ng": 7216,
  "\u2581Phi\u1ec1n": 7217,
  "\u2581T\u01b0\u1edfng": 7218,
  "\u6b7b\u5728": 7219,
  "\u4e0d\u51fa\u6765": 7220,
  "\u5176\u4e2d\u7684": 7221,
  "\u5fc3\u4e2d\u6697": 7222,
  "\u2581vinh": 7223,
  "\u2581\u5510": 7224,
  "\u4f38\u51fa": 7225,
  "\u7ecf\u5e38": 7226,
  "\u2581Tr\u1ee5": 7227,
  "\u2581v\u1ec7t": 7228,
  "\u6ca1\u6709\u8bf4\u8bdd": 7229,
  "\u2581bang": 7230,
  "\u5f02\u7075": 7231,
  "\u8fd9\u4efd": 7232,
  "\u2581chen": 7233,
  "\u2581H\u1eeb": 7234,
  "\u2581\u95fb\u8a00": 7235,
  "\u4e0d\u5c11\u4eba": 7236,
  "\u9677\u5165\u4e86": 7237,
  "\u4ece\u6765\u6ca1\u6709": 7238,
  "\u4eca\u591c": 7239,
  "\u5148\u662f": 7240,
  "\u5e2e\u4f60": 7241,
  "\u8f70\u7136": 7242,
  "\u9752\u9f99": 7243,
  "\u98de\u51fa": 7244,
  "\u5b97\u65cf": 7245,
  "\u2581T\u1ed1c": 7246,
  "\u51e0\u540d": 7247,
  "\u91cd\u9ece": 7248,
  "\u94c1\u9752": 7249,
  "\u2581B\u00e1": 7250,
  "\u2581l\u00fat": 7251,
  "\u2581t\u1ee7y": 7252,
  "\u2581s\u01b0\u1eddn": 7253,
  "\u5934\u9885": 7254,
  "\u5bd2\u5149": 7255,
  "\u624b\u7684": 7256,
  "\u8d21\u732e": 7257,
  "\u4e24\u4eba\u7684": 7258,
  "\u4fee\u58eb\u7684": 7259,
  "\u2581\u4e0d\u77e5\u9053": 7260,
  "\u2581huy\u1ec5n": 7261,
  "\u2581khi\u00eam": 7262,
  "\u2581\u5b89": 7263,
  "\u6a2a\u7a7a": 7264,
  "\u8fd9\u4e0d\u662f": 7265,
  "\u2581kh\u00f4n": 7266,
  "\u4e0d\u4f46": 7267,
  "\u800c\u7acb": 7268,
  "\u4ed6\u4e00\u773c": 7269,
  "\u2581Bi\u1ec7t": 7270,
  "\u4ed6\u80fd": 7271,
  "\u8d8a\u662f": 7272,
  "\u98de\u9f99": 7273,
  "\u9ed1\u5149": 7274,
  "\u2581Tr\u1ea1m": 7275,
  "\u4e86\u6211": 7276,
  "\u56db\u9762": 7277,
  "\u7684\u9ad8": 7278,
  "\u7684\u5c11\u5e74": 7279,
  "\u8ba9\u81ea\u5df1": 7280,
  "\u2581m\u00f2n": 7281,
  "\u2581\u01afng": 7282,
  "\u2581l\u0169ng": 7283,
  "\u4e0d\u5f00": 7284,
  "\u4fbf\u8981": 7285,
  "\u53d1\u5c55": 7286,
  "\u62ff\u8d77": 7287,
  "\u7269\u54c1": 7288,
  "\u2581\u4e39": 7289,
  "\u62c9\u7740": 7290,
  "\u6676\u83b9": 7291,
  "\u900f\u660e": 7292,
  "\u989c\u8272": 7293,
  "\u2581gi\u00e0u": 7294,
  "\u2581\u0110\u1ecbch": 7295,
  "\u2581huy\u1ec7n": 7296,
  "\u4e00\u56e2": 7297,
  "\u5bb5\u5bab": 7298,
  "\u5f53\u771f": 7299,
  "\u64c5\u957f": 7300,
  "\u6b66\u9053": 7301,
  "\u51b7\u836f\u5e08": 7302,
  "\u77e5\u9053\u7684": 7303,
  "\u8f7b\u8f7b\u4e00": 7304,
  "\u2581R\u1ed1t": 7305,
  "\u2581Kh\u1eafc": 7306,
  "\u4ea4\u6613": 7307,
  "\u5343\u666f": 7308,
  "\u5347\u817e": 7309,
  "\u56fa\u539f": 7310,
  "\u5c31\u6ca1": 7311,
  "\u767e\u4e07": 7312,
  "\u2581\u6700\u540e": 7313,
  "\u51fa\u73b0\u7684": 7314,
  "\u2581bi\u1ebfc": 7315,
  "\u1ed5m": 7316,
  "\u4e00\u904d": 7317,
  "\u5371\u673a": 7318,
  "\u6478\u4e86": 7319,
  "\u6b63\u5f0f": 7320,
  "\u53d7\u5230\u4e86": 7321,
  "\u6cd5\u5219\u4e4b\u529b": 7322,
  "\u51e0\u6b21": 7323,
  "\u5c71\u8d8a": 7324,
  "\u6563\u53bb": 7325,
  "\u7684\u91d1": 7326,
  "\u5230\u8fd9\u91cc": 7327,
  "\u2581Gi\u00f3": 7328,
  "\u2581T\u1ecda": 7329,
  "\u54cd\u5f7b": 7330,
  "\u5c71\u8c37": 7331,
  "\u5b54\u5e08": 7332,
  "\u2581Em": 7333,
  "\u2581\u675c\u6cfd": 7334,
  "\u751f\u751f\u7684": 7335,
  "\u767d\u5b50\u8572": 7336,
  "\u2581quy\u1ebfn": 7337,
  "\u4f3c\u7b11": 7338,
  "\u6e05\u8106": 7339,
  "\u624b\u91cc\u7684": 7340,
  "\u2581V\u1eadt": 7341,
  "Ai": 7342,
  "\u4f55\u5fc5": 7343,
  "\u5927\u7f57": 7344,
  "\u2581\u9f50\u4f11": 7345,
  "\u540d\u5e08\u5802": 7346,
  "\u7537\u4eba\u7684": 7347,
  "\u2581\u0111\u00e0m": 7348,
  "\u2581t\u00f9ng": 7349,
  "\u2581chu\u00f4i": 7350,
  "\u2581Ph\u00fa": 7351,
  "\u8fd9\u79cd\u4e8b\u60c5": 7352,
  "\u60f3\u8fc7": 7353,
  "\u8ba9\u5176": 7354,
  "\u8fd9\u5c0f": 7355,
  "\u95ea\u91d1": 7356,
  "\u5f88\u591a\u4eba": 7357,
  "\u534a\u6b65\u91d1\u4ed9": 7358,
  "\u2581ngh\u00e8o": 7359,
  "\u542c\u5230\u4e86": 7360,
  "\u2581\u8fd9\u4e00\u6b21": 7361,
  "\u4ece\u4ed6": 7362,
  "\u5b89\u6170": 7363,
  "\u6446\u4e86": 7364,
  "\u665a\u8f88": 7365,
  "\u2581\u4e91\u8d77": 7366,
  "\u54ea\u6015\u662f": 7367,
  "\u5f88\u5927\u7684": 7368,
  "V\u00e2ng": 7369,
  "\u2581\u4e0e": 7370,
  "\u4e0d\u7edd": 7371,
  "\u53c8\u80fd": 7372,
  "\u56a3\u5f20": 7373,
  "\u57ce\u5e02": 7374,
  "\u7b26\u7bc6": 7375,
  "\u258110": 7376,
  "\u2581nh\u1ea5p": 7377,
  "\u4f60\u6211": 7378,
  "\u2581Qua": 7379,
  "\u2581c\u1edfi": 7380,
  "\u53d8\u4e86": 7381,
  "\u5404\u4e2a": 7382,
  "\u4e00\u5f00\u59cb": 7383,
  "\u4f3c\u7b11\u975e": 7384,
  "\u51b7\u7b11\u9053": 7385,
  "\u611f\u53d7\u7740": 7386,
  "\u8138\u5e9e\u4e0a": 7387,
  "\u2581c\u01b0\u1edbc": 7388,
  "\u2581ho\u00e3n": 7389,
  "\u2581Ng\u01b0\u1ee3c": 7390,
  "\u2581\u5357": 7391,
  "\u2581\u5f20\u7fbd": 7392,
  "\u5bc6\u8c0d\u53f8": 7393,
  "\u5230\u4e86\u6781\u81f4": 7394,
  "\u1ecfe": 7395,
  "\u2581\u65b9": 7396,
  "\u521a\u597d": 7397,
  "\u6574\u5ea7": 7398,
  "\u6fc0\u53d1": 7399,
  "\u9650\u5236": 7400,
  "\u2581\u0110\u1ec1": 7401,
  "\u7684\u80cc\u5f71": 7402,
  "\u7ec8\u4e8e\u662f": 7403,
  "\u2581x\u1ed5m": 7404,
  "\u2581xu\u00f4i": 7405,
  "\u0110\u1ed3": 7406,
  "\u5b9b\u82e5": 7407,
  "\u5f1f\u5f1f": 7408,
  "\u63d0\u4f9b": 7409,
  "\u7684\u5bf9": 7410,
  "\u51ed\u7a7a": 7411,
  "\u610f\u89c1": 7412,
  "\u6211\u5bb6": 7413,
  "\u9996\u9886": 7414,
  "\u4e86\u4ed6\u7684": 7415,
  "\u5239\u90a3\u95f4": 7416,
  "\u597d\u4e0d\u5bb9\u6613": 7417,
  "\u5404\u4f4d": 7418,
  "\u6027\u683c": 7419,
  "\u610f\u5ff5": 7420,
  "\u62fc\u547d": 7421,
  "\u2581nh\u00fac": 7422,
  "\u611f\u6fc0": 7423,
  "\u7b49\u4ed6": 7424,
  "\u805a\u96c6": 7425,
  "\u8eab\u7684": 7426,
  "\u9192\u6765": 7427,
  "\u2581T\u1ea3": 7428,
  "\u662f\u4e00\u7247": 7429,
  "\u2581tr\u01a1": 7430,
  "\u1ebfm": 7431,
  "\u4ef0\u5584": 7432,
  "\u5149\u7ebf": 7433,
  "\u6c89\u91cd": 7434,
  "\u738b\u7834": 7435,
  "\u773c\u5149": 7436,
  "\u8f93\u4e86": 7437,
  "\u2581T\u1ebf": 7438,
  "\u51e0\u4e2a\u4eba": 7439,
  "\u2581m\u1ec9a": 7440,
  "\u2581gi\u00e0y": 7441,
  "\u2581s\u00f9ng": 7442,
  "\u4f60\u8fd8": 7443,
  "\u5343\u5e7b": 7444,
  "\u53d1\u52a8": 7445,
  "\u2581khan": 7446,
  "\u4ed6\u5374": 7447,
  "\u5347\u8d77": 7448,
  "\u56db\u9636": 7449,
  "\u6781\u54c1": 7450,
  "\u79f0\u547c": 7451,
  "\u7684\u7f18\u6545": 7452,
  "\u2581d\u00e1n": 7453,
  "\u4e00\u62db": 7454,
  "\u53c2\u4e0e": 7455,
  "\u6211\u6709": 7456,
  "\u65e0\u5173": 7457,
  "\u767d\u7389": 7458,
  "\u8fd9\u4e8b": 7459,
  "\u9080\u8bf7": 7460,
  "\u2581d\u1edf": 7461,
  "\u2581l\u01b0": 7462,
  "\u2581S\u00e2m": 7463,
  "\u4ece\u800c": 7464,
  "\u5141\u8bb8": 7465,
  "\u8363\u65b9": 7466,
  "\u662f\u771f\u7684": 7467,
  "\u2581man": 7468,
  "\u2581m\u00f3c": 7469,
  "\u8fd9\u6bb5\u65f6\u95f4": 7470,
  "\u2581l\u01b0\u1ee3c": 7471,
  "\u2581Th\u0103ng": 7472,
  "\u2581Tri\u1ec3n": 7473,
  "\u5077\u88ad": 7474,
  "\u539f\u91ce": 7475,
  "\u591c\u7a7a": 7476,
  "\u5b9e\u8bdd": 7477,
  "\u6c79\u6d8c": 7478,
  "\u767e\u82b1": 7479,
  "\u9003\u8d70": 7480,
  "\u9752\u8863": 7481,
  "\u7684\u5bb9\u989c": 7482,
  "\u4e00\u9762": 7483,
  "\u4fee\u9053": 7484,
  "\u50f5\u786c": 7485,
  "\u5230\u4ed6": 7486,
  "\u533a\u533a": 7487,
  "\u6d41\u6dcc": 7488,
  "\u76d8\u5750": 7489,
  "\u800c\u81f3": 7490,
  "\u6d88\u5931\u4e86": 7491,
  "\u2581lo\u00e8": 7492,
  "\u2581\u0111\u1eaft": 7493,
  "\u2581Nhi\u1ec1u": 7494,
  "\u4e0a\u95e8": 7495,
  "\u5403\u60ca": 7496,
  "\u649e\u51fb": 7497,
  "\u7075\u5b97": 7498,
  "\u90a3\u6211": 7499,
  "\u9762\u5177": 7500,
  "\u7ea7\u522b\u7684": 7501,
  "\u2581\u0111\u1eafp": 7502,
  "\u4e1c\u6781": 7503,
  "\u5149\u534e": 7504,
  "Ngao": 7505,
  "\u2581Man": 7506,
  "\u591a\u8bf4": 7507,
  "\u5927\u9ed1": 7508,
  "\u6c14\u6c1b": 7509,
  "\u90fd\u662f\u5728": 7510,
  "\u2581b\u1eafp": 7511,
  "\u2581\u674e\u884c\u4e91": 7512,
  "\u2581gi\u1ee5a": 7513,
  "\u2581kh\u1ecfe": 7514,
  "\u2581ng\u1eafm": 7515,
  "\u2581th\u00e1m": 7516,
  "\u2581\u58a8": 7517,
  "\u2581h\u00e1t": 7518,
  "\u2581\u674e\u901a\u5d16": 7519,
  "\u4e91\u8d77": 7520,
  "\u5343\u91cc": 7521,
  "\u2581M\u1eb9": 7522,
  "\u65f6\u671f": 7523,
  "\u836f\u738b": 7524,
  "\u8fdb\u653b": 7525,
  "\u9633\u57ce": 7526,
  "\u2581H\u00e0ng": 7527,
  "\u2581thon": 7528,
  "\u4e0d\u6e05": 7529,
  "\u5165\u53e3": 7530,
  "\u529b\u6c14": 7531,
  "\u96e8\u8fb0": 7532,
  "\u2581\u4e1c\u65b9": 7533,
  "\u4ed6\u770b\u7740": 7534,
  "\u2581tr\u00e0ng": 7535,
  "\u4e00\u624b": 7536,
  "\u4f18\u79c0": 7537,
  "\u684c\u4e0a": 7538,
  "\u4e00\u65c1\u7684": 7539,
  "\u4ed6\u8fd8\u662f": 7540,
  "\u7684\u5bf9\u624b": 7541,
  "\u7684\u80fd\u529b": 7542,
  "\u2581r\u1ecdi": 7543,
  "\u6df1\u5438\u4e00\u53e3\u6c14": 7544,
  "\u7535\u8bdd": 7545,
  "\u7b14\u76f4": 7546,
  "\u7fa1\u6155": 7547,
  "\u8fd9\u53ea": 7548,
  "\u5728\u4e00\u65c1": 7549,
  "\u2581th\u00e1ch": 7550,
  "\u4eba\u4e86": 7551,
  "\u516c\u53f8": 7552,
  "\u540d\u4e3a": 7553,
  "\u5730\u4e0b": 7554,
  "\u5b98\u5458": 7555,
  "\u6536\u96c6": 7556,
  "\u8fd9\u4e48\u5feb": 7557,
  "\u2581r\u00e8m": 7558,
  "\u592a\u521d\u5927\u4e16\u754c": 7559,
  "\u2581giang": 7560,
  "\u5ac9\u5992": 7561,
  "\u5e26\u6765": 7562,
  "\u6ce8\u610f\u529b": 7563,
  "\u773c\u770b\u7740": 7564,
  "\u2581c\u00f4n": 7565,
  "\u2581x\u00f4i": 7566,
  "\u2581\u0111\u0129a": 7567,
  "\u4f3c\u7b11\u975e\u7b11": 7568,
  "\u2581Chi\u00eam": 7569,
  "\u8033\u6735": 7570,
  "\u4f60\u73b0\u5728": 7571,
  "\u2581kh\u1ee9": 7572,
  "\u2581qu\u00e0": 7573,
  "\u534a\u664c": 7574,
  "\u6697\u591c": 7575,
  "\u865a\u5e7b": 7576,
  "\u90a3\u53cc": 7577,
  "Kho": 7578,
  "\u9752\u5149": 7579,
  "T\u1ea5t": 7580,
  "\u2581L\u1eef": 7581,
  "\u2581oan": 7582,
  "\u2581S\u00f9ng": 7583,
  "\u4f60\u6709": 7584,
  "\u5c3d\u5934": 7585,
  "\u62b5\u6297": 7586,
  "\u6765\u627e": 7587,
  "\u7ea2\u8272\u7684": 7588,
  "\u2581m\u00edm": 7589,
  "\u2581Doanh": 7590,
  "\u60f3\u50cf": 7591,
  "\u7ea2\u8863": 7592,
  "\u4e39\u5668\u5b97": 7593,
  "\u2581h\u1ef1c": 7594,
  "\u2581\u6d1b\u8776\u8863": 7595,
  "\u2581ch\u1ee5p": 7596,
  "\u4e0b\u54c1": 7597,
  "\u51dd\u7ed3": 7598,
  "\u7687\u8005": 7599,
  "\u9057\u61be": 7600,
  "\u2581l\u00ea": 7601,
  "\u2581\u0111\u00e0": 7602,
  "\u5c06\u4ed6\u4eec": 7603,
  "\u6478\u4e86\u6478": 7604,
  "\u4e00\u4f1a": 7605,
  "\u4e00\u5411": 7606,
  "\u4e07\u5206": 7607,
  "\u5e94\u5bf9": 7608,
  "\u5fc3\u60ca": 7609,
  "\u4ed6\u4e5f\u662f": 7610,
  "\u7684\u8138\u5e9e": 7611,
  "C\u00f4ng": 7612,
  "\u2581\u9f99\u5929\u660e": 7613,
  "\u2581Qu\u1ea3ng": 7614,
  "\u4ee4\u724c": 7615,
  "\u53ea\u5f97": 7616,
  "\u5c04\u51fa": 7617,
  "\u771f\u4f20": 7618,
  "\u804c\u4e1a": 7619,
  "\u2581k\u1eb9t": 7620,
  "\u2581m\u1ed9c": 7621,
  "\u5230\u6765": 7622,
  "\u593a\u76ee": 7623,
  "\u9762\u5b50": 7624,
  "\u2581\u7956\u9f99": 7625,
  "\u51e0\u4e4e\u662f": 7626,
  "\u5e26\u6765\u7684": 7627,
  "\u8be1\u5f02\u7684": 7628,
  "\u2581k\u00e8m": 7629,
  "\u5bb9\u4e91\u5927\u5e08": 7630,
  "\u65e0\u6240": 7631,
  "\u6d77\u57df": 7632,
  "\u8111\u5b50": 7633,
  "\u81ea\u52a8": 7634,
  "\u8c22\u8c22": 7635,
  "\u2581M\u1ec5": 7636,
  "\u2581ng\u00f9ng": 7637,
  "\u4e94\u4e2a": 7638,
  "\u4f1a\u662f": 7639,
  "\u542c\u4e86": 7640,
  "\u5730\u8bf4": 7641,
  "\u5927\u534a": 7642,
  "\u5c31\u6b64": 7643,
  "\u62a5\u4ec7": 7644,
  "\u6d41\u8f6c": 7645,
  "\u80fd\u5728": 7646,
  "T\u00f4i": 7647,
  "\u2581\u800c\u5728": 7648,
  "\u6253\u4e86\u4e2a": 7649,
  "Ti\u1ec1n": 7650,
  "\u2581C\u0103n": 7651,
  "\u52a0\u6301": 7652,
  "\u53ef\u4e0d": 7653,
  "\u5578\u6708": 7654,
  "\u7684\u4ed9": 7655,
  "\u2581nh\u1ea1c": 7656,
  "\u2581thung": 7657,
  "\u7389\u7687": 7658,
  "\u9635\u738b": 7659,
  "\u53ea\u9700\u8981": 7660,
  "\u767d\u8272\u7684": 7661,
  "\u2581Qu\u1eadn": 7662,
  "\u2581nh\u1ec7n": 7663,
  "\u53ec\u5524": 7664,
  "\u5b8c\u6bd5": 7665,
  "\u7684\u4e0d": 7666,
  "\u8fd9\u80a1": 7667,
  "\u9053\u888d": 7668,
  "\u98d8\u98d8": 7669,
  "\u2581Mi": 7670,
  "\u2581\u82cf\u6e05": 7671,
  "\u7740\u773c\u775b": 7672,
  "\u8fc5\u901f\u7684": 7673,
  "\u2581h\u1ed1t": 7674,
  "\u2581Th\u01b0\u1ee3c": 7675,
  "\u6084\u7136": 7676,
  "\u772f\u8d77": 7677,
  "\u91d1\u521a": 7678,
  "\u2581k\u1ef7": 7679,
  "\u2581\u7136\u540e": 7680,
  "\u7684\u5f3a\u5927": 7681,
  "Tinh": 7682,
  "\u2581li\u1ec5m": 7683,
  "\u6674\u96ea": 7684,
  "\u6781\u70b9": 7685,
  "\u2581L\u00f4": 7686,
  "D\u1ecbch": 7687,
  "\u2581Song": 7688,
  "\u5de6\u624b": 7689,
  "\u53ef\u80fd\u662f": 7690,
  "\u5728\u54ea\u91cc": 7691,
  "\u7709\u5934\u4e00\u76b1": 7692,
  "\u5c55\u5f00": 7693,
  "\u67d0\u4e2a": 7694,
  "\u72c2\u98ce": 7695,
  "\u8f6c\u8f6e": 7696,
  "\u2581\u6708": 7697,
  "\u4e07\u754c": 7698,
  "\u4e2d\u5fc3": 7699,
  "\u4f9d\u9760": 7700,
  "\u539a\u7684": 7701,
  "\u609f\u9053": 7702,
  "\u60f3\u7684": 7703,
  "\u9648\u793c": 7704,
  "\u96f7\u7535": 7705,
  "Tam": 7706,
  "\u8be5\u5982\u4f55": 7707,
  "\u8fd9\u4e5f\u662f": 7708,
  "\u2581\u53f6\u7d2b\u82b8": 7709,
  "\u2581tu\u00e2n": 7710,
  "\u4e91\u6e05": 7711,
  "\u4ece\u5c0f": 7712,
  "\u4f5c\u54cd": 7713,
  "\u611f\u60c5": 7714,
  "\u8212\u670d": 7715,
  "\u84dd\u8272": 7716,
  "\u2581\u4e4b\u524d": 7717,
  "\u5c31\u597d\u50cf": 7718,
  "\u90a3\u4e9b\u4eba": 7719,
  "\u2581D\u00f9ng": 7720,
  "\u5bc6\u5bc6": 7721,
  "\u2581b\u1ec9": 7722,
  "\u2581ti": 7723,
  "\u4e86\u4e00\u80a1": 7724,
  "\u89c9\u5f97\u81ea\u5df1": 7725,
  "\u2581ng\u00f3ng": 7726,
  "\u662f\u7684": 7727,
  "\u7384\u5965": 7728,
  "\u8840\u6db2": 7729,
  "\u8bf4\u6cd5": 7730,
  "\u7684\u9762\u5bb9": 7731,
  "\u2581l\u1ea3o": 7732,
  "\u2581nh\u00e9": 7733,
  "\u2581th\u1ecf": 7734,
  "\u8fd9\u4e2a\u95ee\u9898": 7735,
  "\u5315\u9996": 7736,
  "\u5317\u65b9": 7737,
  "\u5904\u7684": 7738,
  "\u5f97\u591a": 7739,
  "\u7075\u4e39": 7740,
  "\u7a33\u5b9a": 7741,
  "\u8bdd\u9898": 7742,
  "\u2581eo": 7743,
  "\u6ce8\u89c6\u7740": 7744,
  "\u2581\u0111o\u1ea3n": 7745,
  "\u51b2\u5929": 7746,
  "\u5546\u4f1a": 7747,
  "\u8840\u9b54": 7748,
  "\u98ce\u96e8": 7749,
  "\u2581\u8fd9\u91cc": 7750,
  "\u7684\u624b\u4e2d": 7751,
  "\u770b\u4e86\u773c": 7752,
  "\u2581Canh": 7753,
  "\u2581l\u1eb3ng": 7754,
  "\u6253\u65ad": 7755,
  "\u6447\u6643": 7756,
  "\u7075\u5e08": 7757,
  "\u843d\u7684": 7758,
  "\u8f6c\u52a8": 7759,
  "\u5929\u5730\u4e4b": 7760,
  "\u600e\u4e48\u80fd": 7761,
  "\u8bf4\u4e9b\u4ec0\u4e48": 7762,
  "\u2581nh\u00fan": 7763,
  "\u5341\u516b": 7764,
  "\u56e0\u679c": 7765,
  "\u5b9d\u672f": 7766,
  "\u6d4b\u8bd5": 7767,
  "\u9ebb\u9ebb": 7768,
  "\u6062\u590d\u4e86": 7769,
  "\u7684\u8eab\u5b50": 7770,
  "\u2581m\u1ed3i": 7771,
  "\u59dc\u65cf": 7772,
  "\u7565\u663e": 7773,
  "\u964c\u751f": 7774,
  "\u968f\u53e3": 7775,
  "\u2581t\u00f9": 7776,
  "\u53ef\u80fd\u6027": 7777,
  "\u5f00\u53e3\u9053": 7778,
  "\u7684\u6218\u6597": 7779,
  "\u4e07\u91cc\u6cb3\u5c71": 7780,
  "\u4e66\u9986": 7781,
  "\u505c\u7559": 7782,
  "\u53eb\u58f0": 7783,
  "\u5f00\u5fc3": 7784,
  "\u5f15\u6c14": 7785,
  "\u65e0\u540d": 7786,
  "\u6b64\u5730": 7787,
  "\u8bde\u751f": 7788,
  "\u2581g\u1ecdn": 7789,
  "\u2581m\u00e9p": 7790,
  "\u4e00\u4e00": 7791,
  "\u524d\u884c": 7792,
  "\u5251\u9635": 7793,
  "\u624b\u673a": 7794,
  "\u6253\u6270": 7795,
  "\u8ff9\u8c61": 7796,
  "\u9053\u8def": 7797,
  "\u2581Xu\u1ea5t": 7798,
  "\u2581gi\u00e1n": 7799,
  "\u2581Tuy\u1ec3n": 7800,
  "\u4e24\u58f0": 7801,
  "\u5927\u519b": 7802,
  "\u628a\u4f60": 7803,
  "\u795e\u4ed9": 7804,
  "\u80c6\u5b50": 7805,
  "\u90e1\u4e3b": 7806,
  "\u96be\u514d": 7807,
  "\u9996\u5148": 7808,
  "\u65c1\u8fb9\u7684": 7809,
  "\u6ca1\u6709\u4e86": 7810,
  "\u9020\u5316\u5883": 7811,
  "\u2581\u6797\u9707\u5929": 7812,
  "tr": 7813,
  "\u4e00\u4e8c": 7814,
  "\u5934\u6765": 7815,
  "Xin": 7816,
  "\u6709\u591a\u5c11": 7817,
  "\u672c\u4ee5\u4e3a": 7818,
  "\u6d41\u9732\u51fa": 7819,
  "\u76f4\u63a5\u5c06": 7820,
  "\u2581Chi\u1ebfu": 7821,
  "\u523b\u610f": 7822,
  "\u5f53\u4ed6": 7823,
  "\u9065\u8fdc": 7824,
  "\u96fe\u6c14": 7825,
  "\u53d6\u51fa\u4e00": 7826,
  "\u2581ng\u1ee5y": 7827,
  "\u4e0d\u613f": 7828,
  "\u5341\u591a": 7829,
  "\u5374\u4e5f": 7830,
  "\u94f6\u8272": 7831,
  "\u5546\u884c\u821f": 7832,
  "\u7684\u7537\u4eba": 7833,
  "\u89e3\u70e6\u536b": 7834,
  "\u9f50\u659f\u914c": 7835,
  "\u6211\u53ef\u4ee5": 7836,
  "\u7684\u540c\u65f6": 7837,
  "\u2581d\u1ea3i": 7838,
  "\u2581phe": 7839,
  "\u6446\u4e86\u6446\u624b": 7840,
  "\u2581nh\u00fang": 7841,
  "\u4e86\u6570": 7842,
  "?!\"": 7843,
  "\u2581x\u1ec9": 7844,
  "\u5927\u5706\u6ee1": 7845,
  "\u5929\u4e66\u9675": 7846,
  "\u6c89\u9ed8\u4e0d\u8bed": 7847,
  "\u4e0d\u8be5": 7848,
  "\u4e8b\u7269": 7849,
  "\u4f46\u4e5f": 7850,
  "\u5927\u5385": 7851,
  "\u65cb\u8f6c": 7852,
  "\u9f3b\u5b50": 7853,
  "\u2581V\u1ebb": 7854,
  "\u661f\u8fb0\u6bbf": 7855,
  "\u6b64\u540c\u65f6": 7856,
  "\u8f6c\u8fc7\u8eab": 7857,
  "\u2581c\u1ea9u": 7858,
  "\u2581t\u1ed3i": 7859,
  "\u6700\u7ec8\u8fd8\u662f": 7860,
  "\u2581ch\u01b0\u1edbng": 7861,
  "\u4e91\u96fe": 7862,
  "\u6536\u4e86": 7863,
  "\u662f\u88ab": 7864,
  "\u6709\u4f55": 7865,
  "\u80e1\u540c": 7866,
  "\u674e\u51e1\u7684": 7867,
  "\u8eab\u65c1\u7684": 7868,
  "\u8ba9\u59dc\u601d\u5357": 7869,
  "\u2581\u522b": 7870,
  "\u4ed8\u51fa": 7871,
  "\u6740\u6c14": 7872,
  "\u738b\u6bbf": 7873,
  "\u796d\u575b": 7874,
  "\u2581C\u00e1t": 7875,
  "\u4e0d\u61c2": 7876,
  "\u660f\u8ff7": 7877,
  "\u671d\u8bd5": 7878,
  "\u7533\u5c60": 7879,
  "\u8865\u5145": 7880,
  "\u4ed6\u81ea\u5df1": 7881,
  "\u662f\u4e3a\u4e86": 7882,
  "\u6b64\u65f6\u7684": 7883,
  "\u8fd8\u9700\u8981": 7884,
  "\u2581Ki\u1ec3u": 7885,
  "\u2581l\u00fang": 7886,
  "\u4e0d\u81ea": 7887,
  "\u51b7\u6c57": 7888,
  "\u5e95\u8574": 7889,
  "\u6307\u6325": 7890,
  "\u6781\u4e86": 7891,
  "\u2581G\u00e3": 7892,
  "\u2581t\u1ee7": 7893,
  "\u2581\u8fd9\u6837": 7894,
  "\u53c8\u4e0d\u662f": 7895,
  "\u2581\u00f3ng": 7896,
  "\u65e0\u8bba\u5982\u4f55": 7897,
  "\u5ba2\u4eba": 7898,
  "\u6765\u4eba": 7899,
  "\u7167\u987e": 7900,
  "\u9053\u57fa": 7901,
  "\u2581k\u1ebd": 7902,
  "\u4fee\u70bc\u5230": 7903,
  "\u5c04\u800c\u51fa": 7904,
  "\u7684\u80fd\u91cf": 7905,
  "\u2581v\u00e1c": 7906,
  "\u8fd9\u4e2a\u7537\u4eba": 7907,
  "\u4f8d\u536b": 7908,
  "\u8ddf\u4f60": 7909,
  "\u95ed\u4e0a": 7910,
  "\u2581B\u01b0u": 7911,
  "\u2581Cu\u1ed3ng": 7912,
  "\u1ea6m": 7913,
  "\u505a\u4e8b": 7914,
  "\u5251\u7684": 7915,
  "\u7834\u706d": 7916,
  "\u2581Nho": 7917,
  "\u2581lo\u00e0i": 7918,
  "\u53c8\u8981": 7919,
  "\u5cb3\u5c71": 7920,
  "\u63a5\u8fde": 7921,
  "\u63e1\u4f4f": 7922,
  "\u7ec3\u6c14": 7923,
  "\u968f\u4e4b": 7924,
  "\u2581r\u1ec9": 7925,
  "\u2581\u7956\u7b26": 7926,
  "\u2581\u7b2c\u4e00": 7927,
  "\u7684\u786e\u662f": 7928,
  "\u2581g\u00f3p": 7929,
  "\u4e3a\u4ed6": 7930,
  "\u5728\u5c71": 7931,
  "\u795e\u5c06": 7932,
  "\u89c1\u9762": 7933,
  "\u8fd9\u7fa4": 7934,
  "\u6709\u51e0\u5206": 7935,
  "\u53d8\u5f97\u6709\u4e9b": 7936,
  "\u677e\u4e86\u4e00\u53e3\u6c14": 7937,
  "\u2581Khanh": 7938,
  "\u2581\u7956": 7939,
  "\u4e00\u6c89": 7940,
  "\u7591\u95ee": 7941,
  "\u8d70\u6765": 7942,
  "\u9f99\u8840": 7943,
  "\u2581\u987e\u6052": 7944,
  "\u5f3a\u70c8\u7684": 7945,
  "\u2581B\u1ea1o": 7946,
  "\u2581k\u1ecbt": 7947,
  "\u5316\u4e3a\u4e00\u9053": 7948,
  "\u4f60\u770b": 7949,
  "\u5929\u7075": 7950,
  "\u5f3a\u5ea6": 7951,
  "\u662f\u4ee5": 7952,
  "\u9b54\u9b3c": 7953,
  "\u9ed1\u5f71": 7954,
  "\u2581\u8fd9\u4f4d": 7955,
  "\u628a\u81ea\u5df1": 7956,
  "\u65f6\u4e0d\u65f6": 7957,
  "\u505c\u4e86\u4e0b\u6765": 7958,
  "\u2581Lo\u1ea1n": 7959,
  "\u2581ch\u1ed9p": 7960,
  "\u601d\u7eea": 7961,
  "\u6218\u7532": 7962,
  "\u8f7b\u58f0": 7963,
  "\u4e0d\u660e": 7964,
  "\u603b\u90e8": 7965,
  "\u6211\u548c": 7966,
  "\u656c\u754f": 7967,
  "\u2581L\u1ea5y": 7968,
  "\u5bc6\u5bc6\u9ebb\u9ebb": 7969,
  "\u5e9f\u589f": 7970,
  "\u6cdb\u7740": 7971,
  "\u8bb0\u5f55": 7972,
  "\u5230\u5904\u90fd\u662f": 7973,
  "\u81f3\u5c0a\u5f3a\u8005": 7974,
  "\u2581Bi\u00ean": 7975,
  "\u25815": 7976,
  "\u5fc3\u5883": 7977,
  "\u722a\u5b50": 7978,
  "\u771f\u7f61": 7979,
  "\u2581\u8fd8\u6709": 7980,
  "\u5c31\u77e5\u9053": 7981,
  "\u2581t\u1ee5ng": 7982,
  "\u4ece\u4e2d": 7983,
  "\u51e0\u767e": 7984,
  "\u987f\u4e86": 7985,
  "\u2581ch\u0103n": 7986,
  "\u2581\u4e24": 7987,
  "\u4ed6\u60f3": 7988,
  "\u82cd\u9f99": 7989,
  "\u9762\u9762\u76f8": 7990,
  "\u2581\u591c": 7991,
  "\u51dd\u56fa": 7992,
  "\u5c06\u6765": 7993,
  "\u79ef\u7d2f": 7994,
  "\u8131\u79bb": 7995,
  "\u2581\u1ee7y": 7996,
  "\u7684\u90a3\u4f4d": 7997,
  "\u2581Cam": 7998,
  "\u2581D\u1ef1a": 7999,
  "\u2581t\u00f3m": 8000,
  "\u2581tr\u1ea3o": 8001,
  "000": 8002,
  "\u4ef6\u4e8b\u60c5": 8003,
  "\u6d53\u6d53\u7684": 8004,
[...]
